<unk>	0
<s>	0
</s>	0
,	-2.84999
▁the	-3.51824
▁and	-3.68836
s	-3.7265
.	-3.84681
▁of	-3.8878
▁to	-4.19501
▁a	-4.21251
,"	-4.47518
-	-4.64743
▁in	-4.70753
▁at	-4.75308
'	-4.81628
▁	-4.87733
▁,	-4.90429
By	-4.95822
Price	-4.9743
▁Starting	-4.97779
▁1,	-4.97861
▁for	-5.15075
▁is	-5.1577
",	-5.19052
","	-5.35663
▁that	-5.38558
▁with	-5.39514
:	-5.46867
▁(	-5.53056
▁The	-5.55578
▁her	-5.59239
9	-5.59914
▁on	-5.601
.","	-5.67002
▁his	-5.71182
ing	-5.76941
▁&	-5.83217
▁as	-5.8458
▁$5.2	-5.87687
▁from	-5.87956
▁an	-6.02404
▁by	-6.06373
▁you	-6.06594
▁A	-6.11584
ed	-6.12345
’	-6.14002
▁General	-6.15258
▁are	-6.17766
t	-6.1803
▁it	-6.19896
▁their	-6.23773
▁has	-6.2452
▁he	-6.25181
▁Fiction	-6.26132
▁this	-6.26779
▁who	-6.29478
▁$4.99	-6.33276
▁she	-6.34295
▁January	-6.37805
▁be	-6.43716
▁life	-6.43945
ly	-6.46664
?	-6.49594
▁all	-6.50687
▁how	-6.51112
▁will	-6.52144
d	-6.52194
▁one	-6.54452
The	-6.57396
▁book	-6.5802
▁your	-6.58595
▁can	-6.58741
▁""	-6.58968
▁more	-6.6103
▁have	-6.61338
▁Books	-6.63326
A	-6.67075
▁new	-6.6742
▁about	-6.68426
▁or	-6.7209
▁they	-6.72687
er	-6.72747
▁into	-6.74554
;	-6.78377
▁most	-6.78432
▁world	-6.78976
—	-6.79163
),"	-6.79425
y	-6.84596
▁was	-6.85092
Monday	-6.89287
a	-6.89778
Thursday	-6.90479
Tuesday	-6.90719
e	-6.91368
Saturday	-6.92388
Wednesday	-6.92728
Sunday	-6.93518
▁but	-6.93994
Friday	-6.95086
▁"	-6.95672
▁.	-6.98737
▁what	-6.99617
▁when	-6.99634
""	-6.99889
▁In	-7.01209
▁than	-7.02567
▁not	-7.02998
)","	-7.03547
▁American	-7.04315
▁first	-7.06031
▁out	-7.0607
▁New	-7.0695
▁up	-7.07042
and	-7.07353
▁But	-7.08506
▁Book	-7.09724
)	-7.11502
▁time	-7.1384
--	-7.15352
▁love	-7.16568
▁family	-7.19604
!	-7.1984
▁own	-7.22199
▁them	-7.23351
▁-	-7.23595
▁And	-7.24315
S	-7.24328
▁its	-7.26215
▁I	-7.26705
▁our	-7.26777
▁story	-7.27516
▁--	-7.28938
▁September	-7.29976
▁him	-7.30538
▁years	-7.30717
▁Juvenile	-7.30827
▁It	-7.30932
▁been	-7.32881
re	-7.33268
",,,	-7.33956
▁author	-7.34499
▁other	-7.35851
▁only	-7.35907
),	-7.37871
▁through	-7.38428
in	-7.38789
▁House	-7.39918
▁Press	-7.40807
▁we	-7.41269
▁October	-7.41587
▁America	-7.42529
▁make	-7.42952
▁people	-7.43051
al	-7.44898
▁best	-7.45508
es	-7.45988
▁help	-7.4599
▁find	-7.46273
to	-7.47331
▁man	-7.48806
▁May	-7.49245
▁way	-7.49561
▁over	-7.4993
▁S	-7.50121
▁April	-7.51572
ll	-7.51596
In	-7.51896
▁so	-7.52117
EDT	-7.52488
▁do	-7.52763
▁work	-7.53009
▁two	-7.53095
▁June	-7.53231
▁$5.	-7.53752
▁which	-7.54199
▁no	-7.54435
▁March	-7.55073
▁home	-7.56059
▁just	-7.56451
▁He	-7.57267
▁like	-7.57278
▁Science	-7.57516
▁well	-7.57759
▁history	-7.57951
▁young	-7.60011
▁us	-7.61246
n	-7.62352
▁John	-7.62904
▁York	-7.63334
▁even	-7.63469
▁these	-7.64077
▁every	-7.6408
▁This	-7.64595
r	-7.6477
▁also	-7.65041
▁You	-7.65235
▁Guide	-7.65444
▁August	-7.65607
▁women	-7.67161
▁where	-7.67209
▁guide	-7.67724
▁each	-7.68192
▁Life	-7.69556
▁children	-7.70209
ILT	-7.70876
▁W	-7.71753
▁God	-7.72082
▁readers	-7.72322
▁many	-7.72483
R	-7.72587
.""	-7.74716
▁lives	-7.74774
...	-7.74989
▁How	-7.75461
the	-7.75669
▁novel	-7.76181
▁C	-7.76215
▁“	-7.77005
▁woman	-7.77114
▁M	-7.77765
▁such	-7.7788
man	-7.78303
▁had	-7.79227
▁World	-7.80443
▁With	-7.80698
",,"	-7.80805
▁E	-7.80943
▁War	-7.81136
▁between	-7.82037
▁both	-7.82153
/	-7.82788
▁Inc	-7.83558
or	-7.83731
▁get	-7.8395
▁Your	-7.84123
▁stories	-7.84216
C	-7.84396
▁February	-7.84984
▁back	-7.85137
▁Religion	-7.85934
▁B	-7.86687
on	-7.86782
▁never	-7.8679
▁there	-7.87085
▁must	-7.87899
▁November	-7.87923
▁information	-7.88088
▁J	-7.88208
▁now	-7.88434
▁July	-7.89066
▁including	-7.89256
ers	-7.89365
▁offers	-7.89638
m	-7.89911
▁some	-7.90899
&&	-7.91609
o	-7.9168
▁$10.9	-7.93622
▁ever	-7.93725
▁D	-7.94093
▁History	-7.94234
i	-7.94617
▁know	-7.94951
ve	-7.95397
▁Co	-7.95531
▁December	-7.96295
▁day	-7.96393
▁Publishing	-7.96505
▁For	-7.96627
T	-7.96778
▁after	-7.97652
▁heart	-7.97851
▁Young	-7.98345
▁much	-7.98408
▁great	-7.98533
P	-7.98654
▁Times	-7.98702
▁Cooking	-7.98963
▁series	-7.99015
▁What	-7.99188
▁Now	-7.99441
I	-7.99799
th	-7.99822
▁long	-8.0012
▁need	-8.00422
▁She	-8.00476
en	-8.01545
▁before	-8.01677
B	-8.02886
▁Business	-8.03412
D	-8.03437
▁L	-8.035
▁those	-8.03679
▁war	-8.03903
▁take	-8.0463
▁past	-8.04803
▁if	-8.05388
▁good	-8.05535
▁personal	-8.05696
L	-8.06053
▁mother	-8.06523
▁would	-8.06903
▁Pub	-8.07283
▁become	-8.07412
▁T	-8.07827
▁States	-8.08038
▁power	-8.08444
W	-8.08793
▁recipes	-8.08827
▁United	-8.09699
▁2000",	-8.11691
▁father	-8.1202
▁any	-8.12164
▁1999",	-8.12377
▁were	-8.12388
▁business	-8.12512
▁down	-8.12864
▁2004",	-8.12886
▁2003",	-8.13791
▁1998",	-8.14217
▁R	-8.14944
▁2002",	-8.1514
▁David	-8.15274
▁H	-8.15299
an	-8.15366
le	-8.15775
▁come	-8.1604
▁real	-8.16285
,,,	-8.16771
▁men	-8.16928
▁three	-8.16934
▁human	-8.16965
▁friends	-8.16996
▁could	-8.17096
▁use	-8.17224
▁Christian	-8.17316
▁easy	-8.1764
▁bestselling	-8.17851
g	-8.17934
▁P	-8.18046
▁2001",	-8.18226
▁F	-8.18879
▁Romance	-8.19011
▁1997",	-8.19611
This	-8.19837
▁Robert	-8.20036
old	-8.20418
▁James	-8.20471
▁As	-8.20674
▁Family	-8.20732
▁When	-8.20775
▁while	-8.20909
▁shows	-8.21348
▁full	-8.21722
▁2005",	-8.21895
▁look	-8.22166
▁school	-8.22932
▁learn	-8.23055
▁collection	-8.23254
▁very	-8.23694
▁takes	-8.23932
▁Novel	-8.23937
c	-8.24242
▁Health	-8.24728
▁today	-8.25842
▁high	-8.25875
▁parents	-8.26097
▁death	-8.26165
▁1996",	-8.26353
▁child	-8.26618
▁An	-8.26686
▁O	-8.26714
▁may	-8.2701
▁advice	-8.27055
l	-8.27362
▁old	-8.27466
▁political	-8.27515
▁1995",	-8.27656
▁off	-8.27817
▁together	-8.27886
▁U	-8.2811
▁G	-8.2863
▁right	-8.28675
▁too	-8.28964
▁2006",	-8.29139
▁Readers	-8.29565
▁little	-8.30149
▁re	-8.30378
▁Nonfiction	-8.30453
)",	-8.30594
▁being	-8.31174
▁includes	-8.31408
el	-8.31409
▁Home	-8.31434
▁around	-8.32037
▁Pr	-8.32141
▁country	-8.32147
▁un	-8.3228
▁provides	-8.32298
▁edition	-8.32432
,""	-8.32455
▁whose	-8.33011
by	-8.33489
▁made	-8.33943
▁questions	-8.34052
▁everything	-8.34236
it	-8.34312
▁From	-8.34981
▁Michael	-8.35394
▁2007",	-8.35438
▁Dr	-8.35441
▁place	-8.35485
▁Women	-8.35653
▁finds	-8.36136
▁last	-8.36206
▁To	-8.36428
▁against	-8.36743
▁Social	-8.37228
▁Adult	-8.37272
▁again	-8.37674
▁Series	-8.37946
▁Mystery	-8.3832
▁true	-8.38896
year	-8.39012
▁1994",	-8.39252
▁friend	-8.39449
▁powerful	-8.39482
▁secret	-8.399
ion	-8.39905
▁practical	-8.40003
▁important	-8.40181
▁self	-8.40207
▁change	-8.40275
”	-8.40475
▁want	-8.40574
▁go	-8.4061
k	-8.40624
▁why	-8.40761
▁future	-8.40978
▁Economics	-8.41477
▁once	-8.41489
ic	-8.42562
▁comes	-8.43048
▁His	-8.43107
▁health	-8.43182
▁books	-8.43205
▁behind	-8.43383
▁No	-8.43555
ie	-8.43641
▁himself	-8.44337
▁year	-8.44614
▁experience	-8.44764
▁1993",	-8.4508
▁perfect	-8.45425
▁classic	-8.45489
▁They	-8.45831
▁see	-8.46068
▁Detective	-8.46323
▁herself	-8.46548
▁All	-8.46913
G	-8.47292
▁set	-8.47519
▁show	-8.47631
▁2008",	-8.4782
is	-8.48441
▁K	-8.48643
▁another	-8.49073
▁beautiful	-8.49151
▁Political	-8.49856
▁1992",	-8.50115
▁found	-8.50142
p	-8.50437
ist	-8.50451
▁different	-8.50598
▁small	-8.50707
▁de	-8.50904
▁things	-8.51489
▁simple	-8.51907
able	-8.51981
▁murder	-8.52328
▁tips	-8.52708
▁then	-8.52855
▁without	-8.53003
▁living	-8.53204
b	-8.53258
▁end	-8.53259
▁food	-8.53279
▁marriage	-8.53376
▁Reference	-8.53527
▁special	-8.53807
▁modern	-8.54014
▁We	-8.54151
▁Mary	-8.54416
▁Can	-8.54472
▁Stories	-8.54768
▁Do	-8.54801
▁career	-8.54877
▁Christmas	-8.55094
▁popular	-8.55094
▁read	-8.55433
▁live	-8.55715
When	-8.55844
▁William	-8.55886
ness	-8.56366
st	-8.56445
▁My	-8.56532
An	-8.5674
▁George	-8.56858
▁still	-8.56894
▁Brown	-8.56974
▁yet	-8.57043
u	-8.57084
▁Love	-8.57221
▁Great	-8.57694
▁face	-8.57914
▁fun	-8.57994
▁ways	-8.58078
▁written	-8.58195
▁body	-8.58205
M	-8.58278
▁makes	-8.58405
▁case	-8.58622
▁Richard	-8.58647
▁keep	-8.58817
▁making	-8.58847
▁Washington	-8.58859
▁Edition	-8.59004
▁daughter	-8.59179
▁better	-8.59413
▁always	-8.59514
▁art	-8.59775
▁during	-8.59986
2	-8.59998
▁Bible	-8.60339
▁truth	-8.60542
▁care	-8.60593
▁tale	-8.60631
▁husband	-8.60709
▁journey	-8.61005
▁part	-8.61597
▁Historical	-8.61644
ity	-8.61657
▁town	-8.61818
▁students	-8.61896
▁Biography	-8.62037
▁does	-8.62169
▁Or	-8.62184
8	-8.62217
▁under	-8.62601
▁1991",	-8.6285
▁research	-8.63119
▁wife	-8.63138
▁Travel	-8.63151
▁Literary	-8.63229
▁secrets	-8.63255
▁Paul	-8.63311
▁techniques	-8.63399
F	-8.63564
▁unique	-8.63753
▁features	-8.63837
▁discover	-8.64054
▁age	-8.64087
as	-8.64169
▁photographs	-8.64552
▁others	-8.64821
▁Art	-8.65064
▁step	-8.65314
▁Her	-8.65599
▁Autobiography	-8.65964
▁Company	-8.65964
▁century	-8.66028
▁1990",	-8.66119
▁girl	-8.66332
▁ideas	-8.66535
▁four	-8.67012
▁One	-8.67041
▁Original	-8.67163
▁away	-8.67278
.”	-8.67498
From	-8.67579
E	-8.67586
0	-8.67732
▁same	-8.6791
▁house	-8.68227
▁social	-8.68269
Random	-8.68423
▁writing	-8.68433
▁really	-8.68653
▁twenty	-8.68816
us	-8.68851
▁knows	-8.6888
▁job	-8.68936
▁begins	-8.69081
▁often	-8.69107
et	-8.69154
▁left	-8.69213
▁words	-8.6924
▁plan	-8.69247
▁events	-8.69377
6	-8.69518
▁issues	-8.7009
h	-8.70112
▁turn	-8.70123
▁son	-8.70179
▁night	-8.70272
ry	-8.70292
▁since	-8.70334
▁problems	-8.70355
▁So	-8.71198
ton	-8.7122
▁Is	-8.71849
▁characters	-8.72137
▁relationship	-8.72185
▁Man	-8.72195
▁Martin	-8.72268
▁Peter	-8.72373
▁something	-8.72502
ation	-8.72553
▁along	-8.72656
▁Re	-8.72839
▁text	-8.72861
ar	-8.72914
▁Jack	-8.72948
one	-8.73322
▁anyone	-8.73635
▁here	-8.73786
▁success	-8.73808
▁2009",	-8.73848
▁Best	-8.73992
up	-8.7433
▁$8.7	-8.7444
▁hard	-8.74473
▁That	-8.74803
ia	-8.75115
!","	-8.75152
▁1989",	-8.75234
▁major	-8.75433
▁create	-8.7546
▁color	-8.75631
▁key	-8.75715
▁Thrillers	-8.75919
▁English	-8.76179
▁money	-8.76388
It	-8.76389
▁give	-8.76803
▁Thomas	-8.77033
▁N	-8.77035
ro	-8.77247
1	-8.77414
▁clear	-8.77891
son	-8.77907
▁Time	-8.78175
less	-8.78183
▁public	-8.782
▁don	-8.78405
ism	-8.7846
▁far	-8.785
4	-8.78514
▁White	-8.78592
▁play	-8.78727
▁reader	-8.78844
▁reading	-8.79104
▁Little	-8.79164
▁printing	-8.79305
▁themselves	-8.79424
▁complete	-8.79433
▁De	-8.80172
▁needs	-8.80258
▁until	-8.8026
▁1988",	-8.8043
▁authors	-8.80572
▁mind	-8.80572
▁city	-8.80804
Simon	-8.81079
ley	-8.81366
▁Children	-8.81639
▁There	-8.81816
▁faith	-8.82019
ur	-8.82097
ent	-8.82139
▁tells	-8.82201
▁illustrations	-8.82296
▁style	-8.82309
▁account	-8.82693
▁nation	-8.82983
▁top	-8.83262
f	-8.83349
▁mystery	-8.83379
▁hope	-8.83575
▁understand	-8.83696
For	-8.84076
▁among	-8.84317
St	-8.84666
▁process	-8.84856
▁Be	-8.85364
▁culture	-8.85407
▁science	-8.85503
▁known	-8.85534
▁government	-8.85623
▁—	-8.85641
▁my	-8.85698
▁course	-8.85732
▁present	-8.85755
5	-8.85845
▁wants	-8.85888
▁next	-8.85897
▁should	-8.85902
▁University	-8.85966
▁big	-8.85971
▁brings	-8.8609
▁First	-8.86149
▁historical	-8.86265
▁study	-8.86349
▁extraordinary	-8.86404
▁few	-8.86432
▁gives	-8.86932
▁save	-8.87019
Harper	-8.87121
est	-8.8715
▁Arts	-8.87502
▁understanding	-8.87677
▁Education	-8.87774
With	-8.87895
▁game	-8.87945
z	-8.87973
ce	-8.88181
▁include	-8.88264
▁put	-8.8839
▁dead	-8.88527
▁Classics	-8.88549
▁becomes	-8.88604
ne	-8.88718
ine	-8.89056
▁boy	-8.89128
il	-8.89314
▁five	-8.89391
▁Publishers	-8.89485
▁common	-8.89487
▁bring	-8.89934
▁Jane	-8.90386
▁everyone	-8.90413
▁second	-8.9048
▁doesn	-8.90512
▁Fitness	-8.90513
▁days	-8.90762
▁Sports	-8.90848
▁program	-8.9103
▁group	-8.91156
▁South	-8.91287
▁mysterious	-8.91387
▁across	-8.91534
▁reveals	-8.91631
K	-8.91796
▁chapter	-8.918
▁passion	-8.91807
▁Charles	-8.91893
▁team	-8.91961
▁control	-8.92036
▁language	-8.92136
▁think	-8.92139
▁kids	-8.92264
▁Self	-8.92322
▁Living	-8.92499
▁St	-8.92507
▁latest	-8.92508
▁soon	-8.92584
▁system	-8.92712
▁former	-8.92728
ul	-8.92739
▁search	-8.92997
▁dangerous	-8.93047
H	-8.93054
▁adventure	-8.93065
▁presents	-8.93318
▁Schuster	-8.9345
▁More	-8.93538
▁Complete	-8.93545
.",,"	-8.93678
▁Mark	-8.93686
▁West	-8.93724
▁Me	-8.93999
ment	-8.94002
▁rich	-8.94149
▁works	-8.94234
▁lost	-8.94245
▁short	-8.94304
▁Day	-8.94366
▁Will	-8.94579
of	-8.94611
▁using	-8.94637
w	-8.94847
▁successful	-8.94945
▁explains	-8.94956
▁Bill	-8.95173
▁answers	-8.95292
▁National	-8.95372
▁provide	-8.95633
▁might	-8.95662
▁dark	-8.9578
▁original	-8.95818
▁Here	-8.95946
ian	-8.96093
▁skills	-8.96127
▁At	-8.96174
▁killer	-8.96211
▁1987",	-8.9625
winning	-8.96543
▁sense	-8.96585
ty	-8.96648
▁comprehensive	-8.96801
em	-8.96889
▁Who	-8.97158
▁nothing	-8.97238
na	-8.97371
▁volume	-8.97396
3	-8.98021
time	-8.9821
ling	-8.98592
▁me	-8.98604
▁name	-8.98708
▁early	-8.98725
▁pages	-8.9873
▁International	-8.98966
▁black	-8.98995
▁writer	-8.99363
▁local	-8.99458
ies	-8.99724
▁fascinating	-8.99835
▁role	-9.00035
▁spiritual	-9.00044
▁because	-9.00202
▁II	-9.00624
step	-9.00634
▁used	-9.00665
▁politics	-9.00683
▁free	-9.00772
▁favorite	-9.0099
▁Relationships	-9.01122
.",,	-9.01132
▁Elizabeth	-9.0115
▁working	-9.01237
▁society	-9.01423
▁thought	-9.01552
▁dog	-9.01707
▁offer	-9.01766
de	-9.01768
▁Story	-9.02035
▁School	-9.0239
▁Europe	-9.02445
▁sister	-9.02492
▁If	-9.02652
▁News	-9.02655
▁humor	-9.02711
▁side	-9.02736
▁start	-9.02749
▁City	-9.0275
▁fiction	-9.0277
te	-9.02952
▁Jesus	-9.03217
▁2010",	-9.0323
▁called	-9.03291
▁essential	-9.03354
▁Personal	-9.03758
▁famous	-9.03765
▁national	-9.0398
▁Library	-9.04322
▁beyond	-9.04603
▁turns	-9.04707
▁did	-9.04757
▁Why	-9.0482
▁beloved	-9.05021
▁kind	-9.05169
▁enough	-9.0522
▁approach	-9.05422
▁illustrated	-9.05424
▁fresh	-9.05605
▁going	-9.05639
▁single	-9.05697
ting	-9.05705
age	-9.05726
at	-9.05728
▁greatest	-9.05775
ive	-9.05988
.",,,	-9.06125
com	-9.06127
▁weight	-9.06195
ri	-9.06214
▁Susan	-9.06275
▁tell	-9.06296
▁feel	-9.06322
ner	-9.0681
▁light	-9.0695
be	-9.06974
▁within	-9.07038
▁battle	-9.07071
▁People	-9.073
N	-9.073
▁ten	-9.07339
▁throughout	-9.07347
▁international	-9.07372
What	-9.07417
ra	-9.07448
▁Barbara	-9.07501
▁leading	-9.07573
▁remarkable	-9.07878
▁Good	-9.08207
▁sure	-9.08229
▁learning	-9.08249
▁hundred	-9.08253
ful	-9.08264
▁relationships	-9.08329
▁North	-9.08354
▁times	-9.08463
▁share	-9.08733
▁design	-9.08771
▁expert	-9.0878
▁1986",	-9.08792
ant	-9.08842
▁knowledge	-9.08959
▁ancient	-9.08996
▁nature	-9.09017
▁dreams	-9.09043
ma	-9.09182
▁Don	-9.09324
▁c	-9.09577
▁community	-9.0959
▁crime	-9.09669
▁contemporary	-9.09829
▁brother	-9.09838
▁Recipes	-9.09959
New	-9.10074
▁gift	-9.1013
▁describes	-9.10174
▁baby	-9.10213
▁call	-9.10253
▁co	-9.10422
▁getting	-9.10441
▁discovers	-9.10577
▁seems	-9.10584
O	-9.10708
▁Stephen	-9.10719
▁lead	-9.10735
▁London	-9.11067
▁inside	-9.11098
▁King	-9.11202
▁person	-9.11217
▁finally	-9.11261
la	-9.11274
▁On	-9.11413
▁2	-9.11482
▁Henry	-9.11483
▁Tom	-9.11508
▁deep	-9.11644
ir	-9.11645
li	-9.11683
▁current	-9.11853
▁Publications	-9.11864
▁military	-9.11889
▁Americans	-9.12137
▁Cookbook	-9.12433
▁explores	-9.12722
ter	-9.12947
Little	-9.12971
▁someone	-9.12977
▁master	-9.13044
▁order	-9.1307
▁page	-9.13184
▁Heart	-9.13295
ke	-9.13354
tic	-9.13455
um	-9.13456
▁close	-9.13558
▁strategies	-9.13602
7	-9.13654
▁variety	-9.1385
▁families	-9.13864
▁changes	-9.13989
William	-9.14031
▁less	-9.14037
▁beauty	-9.14099
▁wisdom	-9.14099
ig	-9.14132
▁Lee	-9.14155
▁action	-9.14297
▁ex	-9.14298
▁run	-9.14387
▁Smith	-9.14442
▁financial	-9.14896
.”—	-9.15008
▁About	-9.15077
▁state	-9.15089
▁won	-9.15123
▁writers	-9.15235
▁basic	-9.15267
color	-9.15292
▁thing	-9.15306
▁later	-9.15657
▁Contemporary	-9.15766
ler	-9.15824
▁childhood	-9.15867
▁Bush	-9.16
▁Black	-9.16045
▁hand	-9.16292
rs	-9.16419
▁After	-9.16478
no	-9.16495
▁Civil	-9.16593
▁England	-9.16753
▁Language	-9.16914
▁Not	-9.16925
▁Recreation	-9.17523
▁Anne	-9.17524
▁whole	-9.17596
▁forever	-9.17883
▁moving	-9.17885
▁private	-9.18116
▁Al	-9.18228
▁professional	-9.18348
▁college	-9.18375
▁funny	-9.18441
▁ago	-9.18447
▁healthy	-9.18483
▁bestseller	-9.18511
U	-9.18612
▁follow	-9.18667
ish	-9.18775
id	-9.18924
▁topics	-9.18983
▁1985",	-9.18984
▁stop	-9.19002
▁Fantasy	-9.19017
▁million	-9.19057
▁development	-9.19118
Bantam	-9.19214
&#39;	-9.19279
▁forces	-9.1933
▁1	-9.19564
▁Other	-9.19788
▁French	-9.19848
▁means	-9.19872
land	-9.19968
ch	-9.19986
▁beginning	-9.19991
▁brilliant	-9.20064
help	-9.20143
▁range	-9.20155
▁toward	-9.2018
▁instructions	-9.20185
▁medical	-9.20274
J	-9.20441
Penguin	-9.20514
▁Then	-9.20675
▁Suspense	-9.20941
▁available	-9.21091
▁experiences	-9.21117
▁reference	-9.21199
▁East	-9.21353
▁land	-9.21442
▁economic	-9.21723
▁almost	-9.21738
▁romance	-9.21873
▁challenges	-9.21906
un	-9.2204
me	-9.22169
per	-9.22177
co	-9.22211
▁determined	-9.22213
▁portrait	-9.22242
▁six	-9.22313
out	-9.22344
▁V	-9.22351
▁compelling	-9.22413
▁President	-9.22469
▁star	-9.22503
day	-9.22706
▁Of	-9.22753
▁growing	-9.22793
▁question	-9.22809
▁meet	-9.22818
▁Earth	-9.23332
▁complex	-9.23411
▁loss	-9.23576
▁detailed	-9.23659
▁dishes	-9.2372
▁#1	-9.23892
▁summer	-9.23916
mo	-9.23957
▁head	-9.23974
▁goes	-9.24119
▁Nelson	-9.24242
▁spirit	-9.24281
▁leaders	-9.24517
▁Street	-9.24604
▁fast	-9.24624
▁Big	-9.24765
ey	-9.24769
ge	-9.25042
▁Hall	-9.25346
▁These	-9.25458
▁natural	-9.25466
▁line	-9.25564
▁dream	-9.25587
ci	-9.25637
▁covers	-9.25933
▁updated	-9.2622
▁filled	-9.26313
▁looking	-9.26552
▁Each	-9.26809
ance	-9.26817
▁tools	-9.27088
▁travel	-9.275
▁president	-9.27576
?","	-9.27778
▁cooking	-9.27915
▁matter	-9.27992
▁Our	-9.28217
▁created	-9.28382
American	-9.28403
▁daily	-9.28558
▁upon	-9.28696
▁Portland	-9.28934
ard	-9.2904
ary	-9.29067
se	-9.29227
▁media	-9.29271
Y	-9.29275
▁Morrow	-9.29317
▁designed	-9.29362
▁Their	-9.29485
lin	-9.29598
lo	-9.29615
▁1984",	-9.29683
How	-9.29689
▁3	-9.29708
all	-9.29841
Ballantine	-9.29936
▁Group	-9.29972
HarperCollins	-9.30011
▁sex	-9.30066
▁eye	-9.30067
▁friendship	-9.30389
▁Medical	-9.30392
▁trying	-9.30654
▁company	-9.30743
▁Through	-9.30783
▁struggle	-9.30811
▁p	-9.30927
▁Crafts	-9.30993
▁entertaining	-9.31026
ous	-9.31035
▁acclaimed	-9.31217
▁insight	-9.31222
ol	-9.31224
▁fans	-9.31281
▁party	-9.31288
▁introduction	-9.31288
▁form	-9.3138
▁hundreds	-9.31426
▁based	-9.31525
▁emotional	-9.3178
▁build	-9.31868
▁La	-9.31918
▁Red	-9.31968
▁THE	-9.32039
▁Psychology	-9.32076
▁literary	-9.32076
▁fact	-9.32313
▁Annotation	-9.32375
▁hands	-9.32494
▁late	-9.32615
▁magic	-9.32762
▁Ann	-9.32806
As	-9.3284
▁Frank	-9.32849
from	-9.33206
▁unforgettable	-9.33352
▁b	-9.33466
ni	-9.33505
▁evil	-9.33537
▁say	-9.33563
▁whether	-9.33657
▁published	-9.33667
▁race	-9.33754
▁taking	-9.33757
▁law	-9.33765
▁Nature	-9.33773
▁training	-9.33949
▁Gardens	-9.33973
▁Study	-9.3415
▁bad	-9.34306
▁seen	-9.34398
▁wrong	-9.34416
▁cover	-9.34429
am	-9.34496
▁4	-9.34506
selling	-9.34522
ber	-9.34981
▁helps	-9.35142
▁global	-9.35178
▁girls	-9.35193
▁Humor	-9.35199
hether	-9.35244
Berkley	-9.35338
▁already	-9.35491
▁Child	-9.35534
▁begin	-9.35553
▁move	-9.35687
ad	-9.35808
▁behavior	-9.35878
▁entire	-9.35878
▁problem	-9.36004
▁field	-9.36071
▁having	-9.36155
COR	-9.36255
▁pre	-9.36308
▁character	-9.36344
▁gets	-9.3638
▁discusses	-9.36437
book	-9.3645
▁Over	-9.3649
▁literature	-9.36577
▁Animals	-9.36786
▁stay	-9.36893
▁recent	-9.36906
▁Diet	-9.36925
▁millions	-9.3698
▁China	-9.37012
▁thirty	-9.37046
▁practice	-9.37061
▁half	-9.37073
▁student	-9.37189
▁traditional	-9.37282
▁leads	-9.37378
▁effective	-9.37393
But	-9.37407
▁Nancy	-9.37432
▁photos	-9.37525
▁itself	-9.37544
do	-9.37545
▁generation	-9.37571
▁Ben	-9.37715
V	-9.37776
▁100	-9.37822
▁room	-9.37943
▁examples	-9.37972
▁fear	-9.38083
x	-9.38173
▁peace	-9.38196
▁anything	-9.3823
▁wide	-9.38436
▁Easy	-9.38478
▁sometimes	-9.38577
▁possible	-9.38627
▁car	-9.38733
▁isn	-9.38772
▁risk	-9.38779
▁low	-9.38817
▁trust	-9.38927
▁diet	-9.38986
▁20	-9.39055
▁planning	-9.39223
▁plans	-9.39294
▁principles	-9.39366
▁Club	-9.39508
▁Guides	-9.39517
▁Middle	-9.39526
but	-9.39607
▁nearly	-9.39622
▁view	-9.39632
▁let	-9.39642
▁creating	-9.39882
life	-9.39928
▁named	-9.39947
▁alone	-9.39977
“	-9.4004
▁technology	-9.40098
os	-9.40129
▁Media	-9.40156
▁cultural	-9.40482
▁Magic	-9.40593
▁result	-9.40656
▁meaning	-9.40681
▁Are	-9.40713
▁voice	-9.40717
▁return	-9.4076
▁brought	-9.40801
▁Power	-9.40803
▁moment	-9.40818
▁became	-9.40883
▁eyes	-9.4091
▁exciting	-9.40965
▁management	-9.41023
▁Girl	-9.41109
▁space	-9.41163
▁answer	-9.41216
▁police	-9.41249
▁Mind	-9.41255
les	-9.41339
▁church	-9.41343
men	-9.41359
▁Year	-9.41363
▁insights	-9.41482
▁chance	-9.41492
▁yourself	-9.41655
▁Men	-9.41713
▁market	-9.41768
▁soul	-9.41822
▁details	-9.41852
▁Web	-9.4195
▁Up	-9.41953
▁Studies	-9.42133
▁building	-9.42162
▁word	-9.42201
▁believe	-9.4241
▁Food	-9.42478
he	-9.42534
).	-9.42556
▁foods	-9.42568
▁projects	-9.426
▁10	-9.42621
da	-9.42648
▁deadly	-9.42708
Thomas	-9.42769
▁ready	-9.42777
▁British	-9.42793
▁picture	-9.4281
▁Management	-9.42845
▁challenge	-9.42866
▁whom	-9.42873
▁facts	-9.42912
▁support	-9.42965
▁fall	-9.42966
im	-9.4302
▁eat	-9.43104
▁stunning	-9.4319
▁shares	-9.43191
▁open	-9.43205
▁force	-9.43339
ted	-9.43485
▁leave	-9.43501
der	-9.43513
▁truly	-9.43859
▁18	-9.43928
▁sea	-9.43998
▁subject	-9.44019
▁everyday	-9.44087
v	-9.44101
▁Old	-9.44103
▁class	-9.44121
▁5	-9.44211
00	-9.44228
▁animals	-9.44539
▁changed	-9.44607
▁fire	-9.44621
▁point	-9.4463
You	-9.44661
▁highly	-9.44786
▁individual	-9.44808
▁white	-9.44833
ta	-9.44869
▁general	-9.44886
▁enjoy	-9.44904
▁Homes	-9.44965
▁Mac	-9.44994
▁told	-9.45128
▁else	-9.45211
▁looks	-9.45263
▁hidden	-9.45327
▁Night	-9.45435
▁Central	-9.45552
▁Green	-9.45577
▁religious	-9.45658
▁terms	-9.45766
▁energy	-9.45832
▁Jim	-9.45873
▁final	-9.45961
▁hilarious	-9.45996
▁coming	-9.46205
▁Jewish	-9.46384
nd	-9.46404
▁music	-9.46423
▁wealth	-9.46645
▁decades	-9.46763
▁taken	-9.46783
▁fight	-9.46788
▁section	-9.46848
▁delicious	-9.46859
▁resource	-9.46867
▁specific	-9.46883
▁list	-9.47209
▁deal	-9.47223
▁strange	-9.47231
century	-9.47304
▁thousands	-9.47397
▁Hill	-9.47412
▁policy	-9.47446
▁number	-9.47477
▁came	-9.47485
▁Get	-9.47536
▁Go	-9.4754
▁essays	-9.47552
ate	-9.47574
▁inspiring	-9.47794
▁Dummies	-9.47796
di	-9.47866
▁finding	-9.4788
▁mission	-9.4797
▁award	-9.48025
ized	-9.48047
▁attention	-9.48156
▁Award	-9.4817
▁Scott	-9.48204
▁San	-9.48322
▁Reader	-9.48355
▁rest	-9.48409
▁letters	-9.48427
▁Mo	-9.48452
▁Light	-9.48466
▁Internet	-9.48498
▁Way	-9.48518
▁wit	-9.4852
▁Un	-9.48565
mer	-9.4858
▁Kids	-9.48596
ally	-9.48664
▁fat	-9.48681
▁Star	-9.48813
▁disease	-9.4888
▁difficult	-9.48919
▁quick	-9.48999
dy	-9.49077
for	-9.49138
▁California	-9.49221
▁Every	-9.49222
▁danger	-9.4932
▁Paperbacks	-9.49324
▁Sarah	-9.49353
▁wild	-9.49403
▁Christ	-9.49438
▁path	-9.49493
▁Johnson	-9.49573
▁Yet	-9.49693
▁strong	-9.49741
▁1983",	-9.49772
▁Out	-9.50077
▁drama	-9.50079
▁eating	-9.50089
▁activities	-9.50092
▁thriller	-9.50181
▁middle	-9.50182
&	-9.50267
▁says	-9.50295
▁Body	-9.50324
▁Bob	-9.50331
▁Reprint	-9.50454
ti	-9.50527
▁courage	-9.50531
▁Joseph	-9.50566
▁creative	-9.5063
","""	-9.50832
▁blood	-9.50977
▁deeply	-9.51038
▁ultimate	-9.5121
▁able	-9.51211
▁Con	-9.51281
▁returns	-9.51356
ier	-9.51515
▁desire	-9.51567
▁win	-9.51633
▁Virginia	-9.52008
▁Know	-9.5205
▁unexpected	-9.52287
▁meets	-9.52422
▁State	-9.52423
▁Computers	-9.5243
▁Trade	-9.52543
▁Gardening	-9.52617
▁Review	-9.52666
▁protect	-9.5274
▁loved	-9.52825
ell	-9.52844
▁freedom	-9.52995
▁cat	-9.53007
▁Church	-9.53013
▁security	-9.53054
▁Kennedy	-9.53084
▁contains	-9.53086
▁lessons	-9.53093
▁Today	-9.53139
▁Sea	-9.53148
▁trip	-9.53162
▁Arthur	-9.53257
▁Most	-9.53337
▁Mr	-9.53414
▁pain	-9.53541
▁Mar	-9.53556
▁turned	-9.53678
▁addition	-9.53718
▁television	-9.53823
▁1982",	-9.53953
▁sports	-9.54381
▁revised	-9.54381
▁Post	-9.54399
▁narrative	-9.54471
▁physical	-9.5462
▁quickly	-9.54919
▁Le	-9.54967
▁rules	-9.5497
▁trouble	-9.55042
▁College	-9.55078
▁water	-9.55152
▁places	-9.55302
▁got	-9.55348
line	-9.55367
▁suspense	-9.55379
▁results	-9.55422
▁birth	-9.55428
▁level	-9.5544
Time	-9.55453
▁Christianity	-9.55484
▁doing	-9.55502
Hill	-9.55518
▁office	-9.55554
▁Shakespeare	-9.5563
▁chapters	-9.55637
▁hot	-9.55646
her	-9.55701
ger	-9.55786
▁teacher	-9.55821
▁knew	-9.5598
go	-9.55991
▁Rose	-9.56018
▁brain	-9.56133
▁detective	-9.56202
▁Hobbies	-9.56265
▁Spirit	-9.56309
▁detail	-9.56518
▁adventures	-9.56643
op	-9.56648
▁education	-9.56797
▁learned	-9.56899
▁fate	-9.57137
▁Joe	-9.57244
Dover	-9.57261
▁missing	-9.57437
▁Wall	-9.57499
▁Carol	-9.57502
▁Military	-9.57518
▁con	-9.57521
▁investigation	-9.57613
▁seem	-9.57743
▁novels	-9.57802
▁Writing	-9.58042
▁Dog	-9.58109
▁Journal	-9.58123
▁interest	-9.58187
ak	-9.58214
▁sets	-9.58246
▁Sam	-9.58457
▁Special	-9.58564
▁given	-9.58647
▁led	-9.58712
▁reality	-9.58743
▁intelligence	-9.5879
▁lies	-9.58841
.""--	-9.58875
▁done	-9.59009
▁Design	-9.59042
▁suddenly	-9.59309
▁strength	-9.59343
▁critical	-9.59436
▁dramatic	-9.59551
▁join	-9.59559
▁kitchen	-9.59565
▁garden	-9.59576
▁Dan	-9.59599
▁drawn	-9.5962
▁members	-9.59625
▁Daniel	-9.5968
▁thinking	-9.59733
▁various	-9.59744
▁joy	-9.59772
▁Jean	-9.59848
▁though	-9.59897
▁Secret	-9.59933
▁interviews	-9.59949
▁Miller	-9.5998
▁Like	-9.60005
▁Just	-9.60027
▁road	-9.60028
▁tales	-9.60101
ex	-9.60156
▁survive	-9.60289
▁Iraq	-9.60303
▁?	-9.60344
▁Blue	-9.60387
▁Kate	-9.60494
▁leader	-9.60567
▁Faith	-9.60572
▁impact	-9.60635
▁African	-9.6078
▁ordinary	-9.60832
▁quest	-9.60889
▁reveal	-9.60923
▁analysis	-9.60931
▁Italian	-9.60958
▁test	-9.60967
McGraw	-9.60977
▁married	-9.61081
▁teaching	-9.61099
▁wedding	-9.6114
▁wonderful	-9.61186
▁Themes	-9.61262
▁Country	-9.61289
▁film	-9.61472
▁computer	-9.61506
▁Age	-9.61508
▁pro	-9.61573
▁Jones	-9.61717
Now	-9.61721
▁Alex	-9.61723
▁vivid	-9.61777
▁tragedy	-9.61831
▁Southern	-9.61889
▁sexual	-9.62028
▁identity	-9.62033
▁seven	-9.62054
▁Tales	-9.62064
▁wine	-9.62204
▁Last	-9.62229
▁Cat	-9.62246
▁Adventure	-9.62342
▁Linda	-9.62385
ga	-9.62405
ow	-9.62431
▁Read	-9.62462
▁values	-9.62547
▁hold	-9.62617
▁Car	-9.62691
▁choice	-9.6271
▁50	-9.62769
▁Laura	-9.62802
▁post	-9.62884
▁examines	-9.6289
▁running	-9.62921
ating	-9.6311
▁guides	-9.63133
▁rise	-9.63171
▁vision	-9.63207
▁Woman	-9.63359
▁scientific	-9.63362
▁Two	-9.63402
▁teach	-9.63443
om	-9.63691
▁perspective	-9.63759
▁involved	-9.63899
▁material	-9.63958
▁Handbook	-9.63993
▁large	-9.64149
▁Parenting	-9.64272
▁Ma	-9.64352
vi	-9.64371
▁Harry	-9.64417
▁began	-9.64466
▁conflict	-9.64597
▁stand	-9.646
▁solve	-9.64714
Vintage	-9.64788
▁Lewis	-9.64815
▁magazine	-9.64936
▁dis	-9.6494
▁holiday	-9.65023
▁Edward	-9.6508
▁shocking	-9.65106
▁focus	-9.65298
▁evidence	-9.65306
▁break	-9.6538
▁crisis	-9.65411
▁baseball	-9.65516
off	-9.65518
▁Digest	-9.65621
ck	-9.65629
Re	-9.65862
▁Ltd	-9.65934
▁Make	-9.66012
▁Christopher	-9.66079
▁moral	-9.66113
▁f	-9.66261
▁hours	-9.66269
ions	-9.66389
▁news	-9.66455
One	-9.66527
▁service	-9.66557
▁environment	-9.6659
▁happy	-9.66591
▁choices	-9.66636
▁included	-9.66775
ack	-9.66778
▁Long	-9.66779
ka	-9.66798
▁Baby	-9.66879
▁1980",	-9.66905
▁non	-9.67026
▁intimate	-9.67041
▁center	-9.671
▁exercise	-9.6716
▁host	-9.67168
▁Real	-9.67179
▁Andrew	-9.67241
▁maps	-9.67247
▁Short	-9.67249
▁Century	-9.67284
▁leadership	-9.67308
▁forced	-9.67389
▁...	-9.67401
▁e	-9.67411
ac	-9.67443
▁1981",	-9.67552
▁hit	-9.67619
▁Garden	-9.67631
▁format	-9.67655
▁avoid	-9.67737
▁develop	-9.67814
▁memoir	-9.6784
▁act	-9.67937
▁choose	-9.67941
ay	-9.67992
con	-9.68009
▁cast	-9.68044
▁era	-9.68197
▁ability	-9.68229
▁Healing	-9.68272
▁earth	-9.68308
ca	-9.68371
▁memory	-9.68476
▁eight	-9.68521
▁inspired	-9.68524
▁methods	-9.68549
we	-9.68558
with	-9.68595
▁Association	-9.68608
▁calls	-9.68621
▁especially	-9.68657
▁escape	-9.68669
wood	-9.68806
▁companion	-9.6881
▁tradition	-9.6885
ny	-9.69051
▁figure	-9.69078
Doubleday	-9.69128
ph	-9.69134
▁Catholic	-9.69169
▁Work	-9.69182
▁Reading	-9.69191
▁Stone	-9.69236
▁religion	-9.69263
ology	-9.69331
▁Soul	-9.6939
▁While	-9.6939
If	-9.694
▁write	-9.69432
▁longer	-9.69436
den	-9.69524
▁writes	-9.69539
▁near	-9.69599
use	-9.69653
▁idea	-9.69754
▁explore	-9.69923
▁desperate	-9.69945
▁resources	-9.7003
▁Lady	-9.70069
▁alive	-9.70102
▁experts	-9.70197
▁Land	-9.70229
▁safe	-9.70259
▁lived	-9.70274
ten	-9.70286
if	-9.70331
▁Mother	-9.70337
▁struggles	-9.70547
▁teachers	-9.70583
▁El	-9.7063
▁months	-9.70788
▁Inspirational	-9.70827
▁violence	-9.70866
▁Noble	-9.71029
▁Mysteries	-9.71107
▁cannot	-9.7119
▁Chinese	-9.71197
▁handsome	-9.71204
▁lose	-9.71237
▁Norton	-9.71293
▁True	-9.71322
▁achieve	-9.71453
▁colorful	-9.71582
▁stress	-9.71608
▁discovery	-9.71618
▁Steve	-9.71786
read	-9.7186
▁Clinton	-9.71864
date	-9.71898
▁try	-9.72038
▁learns	-9.72147
ated	-9.7219
▁Paris	-9.72202
▁performance	-9.72225
▁season	-9.72245
▁changing	-9.72319
▁born	-9.72426
▁source	-9.72433
ford	-9.72479
▁High	-9.72512
Provide	-9.72541
▁Better	-9.72543
▁spend	-9.72559
Life	-9.72788
▁discovered	-9.72838
ster	-9.72844
▁fifty	-9.7309
ba	-9.73109
▁Mc	-9.73117
▁Irish	-9.73129
▁tour	-9.7313
▁following	-9.73176
▁passionate	-9.73231
▁third	-9.73271
▁simply	-9.73315
▁message	-9.73325
▁Ra	-9.73351
▁exercises	-9.73354
▁1979",	-9.73367
▁Society	-9.73428
▁talk	-9.7346
And	-9.73467
▁Tour	-9.7347
▁grow	-9.73504
ut	-9.73516
ial	-9.73533
▁campaign	-9.73557
▁completely	-9.73598
▁actually	-9.73721
izing	-9.73736
▁coverage	-9.73784
▁growth	-9.73821
▁court	-9.73827
▁met	-9.73855
▁project	-9.73891
led	-9.74088
▁amazing	-9.74107
▁studies	-9.74107
▁Prize	-9.74152
▁TV	-9.74172
▁charming	-9.74173
po	-9.74218
▁memories	-9.74221
▁cost	-9.74284
▁potential	-9.74294
▁Boston	-9.74306
▁review	-9.74389
▁rather	-9.7445
▁caught	-9.74451
▁games	-9.74635
▁featuring	-9.74707
,”	-9.74766
way	-9.74797
▁Western	-9.74815
▁island	-9.74935
▁becoming	-9.74945
▁agent	-9.7497
▁foreign	-9.7502
▁Technology	-9.75037
▁follows	-9.75054
▁sweet	-9.75065
▁Step	-9.7512
▁Margaret	-9.75219
▁visit	-9.75441
▁killed	-9.7556
▁romantic	-9.75594
▁artist	-9.75791
▁justice	-9.75853
▁Law	-9.75857
▁enemy	-9.75941
To	-9.75945
▁1978",	-9.75977
new	-9.75984
▁figures	-9.76158
ging	-9.76223
▁concepts	-9.76263
▁air	-9.76283
▁Chicken	-9.7633
▁Religious	-9.76426
▁Queen	-9.76482
▁companies	-9.76521
▁ages	-9.7656
▁legal	-9.7659
▁Golden	-9.76611
work	-9.76612
▁d	-9.76845
▁Alice	-9.7685
ney	-9.76851
ron	-9.76911
▁Grace	-9.76923
▁rare	-9.76956
▁steps	-9.77049
ham	-9.77109
ud	-9.77142
lan	-9.77164
▁further	-9.77222
▁:	-9.77223
▁familiar	-9.77244
ists	-9.773
▁ground	-9.77388
▁cold	-9.77398
▁German	-9.77419
▁helpful	-9.77529
▁Max	-9.77536
▁helped	-9.77657
▁Cook	-9.77668
▁Death	-9.77761
▁outside	-9.77786
▁value	-9.77808
▁Vietnam	-9.77832
▁images	-9.77878
▁balance	-9.77899
▁animal	-9.77918
▁web	-9.77972
nt	-9.78059
▁Jan	-9.78075
▁France	-9.78114
▁Lincoln	-9.7819
▁Williams	-9.78232
▁improve	-9.78237
ab	-9.78269
No	-9.78273
▁mean	-9.7835
....	-9.78369
Avon	-9.78401
▁Pets	-9.7841
ick	-9.78467
&#151;	-9.7864
▁Karen	-9.78705
▁healing	-9.78811
house	-9.78817
▁fully	-9.78854
Grand	-9.78991
▁front	-9.78998
ker	-9.7917
ub	-9.79182
Pocket	-9.79198
▁prepare	-9.79265
▁stage	-9.79352
tz	-9.79354
▁journalist	-9.7939
▁lists	-9.79391
▁Sch	-9.79475
▁warm	-9.79488
▁attack	-9.79542
▁Simon	-9.79733
▁organization	-9.79764
ina	-9.79769
▁vast	-9.79835
▁w	-9.79843
▁debut	-9.79983
▁several	-9.80075
35	-9.80137
▁decision	-9.80243
▁inspiration	-9.80249
▁Lord	-9.80259
ning	-9.80296
▁centuries	-9.80315
▁touch	-9.80405
▁decisions	-9.80509
▁19	-9.80606
▁plot	-9.80609
Offers	-9.80684
▁Care	-9.80687
▁loves	-9.80722
LI	-9.80738
▁Ruth	-9.80851
▁cancer	-9.80855
▁hero	-9.809
▁Music	-9.80906
ah	-9.80921
▁imagination	-9.80921
kin	-9.80956
▁certain	-9.80997
▁Things	-9.81004
19	-9.81129
▁engaging	-9.81164
five	-9.81209
▁useful	-9.8124
▁destroy	-9.81245
▁Collection	-9.81249
▁Mifflin	-9.81286
▁took	-9.81302
▁effects	-9.81369
▁Illustrated	-9.81418
ical	-9.81431
▁intrigue	-9.81507
▁boys	-9.81607
▁ultimately	-9.81618
Golden	-9.81639
▁Quick	-9.81656
sh	-9.81734
ot	-9.81758
▁lot	-9.81813
▁older	-9.8184
ence	-9.81911
▁alike	-9.82084
▁brand	-9.82115
▁Alan	-9.8213
▁murdered	-9.82202
▁spent	-9.82274
▁offering	-9.82351
▁surprising	-9.82359
▁Disney	-9.82367
Knopf	-9.82379
▁cookbook	-9.82402
▁meals	-9.82421
▁Y	-9.82445
▁buy	-9.82452
▁Taylor	-9.82476
va	-9.82531
lu	-9.82572
▁g	-9.8259
▁doctor	-9.82645
▁moments	-9.82648
At	-9.82663
▁Second	-9.82695
▁Girls	-9.82759
▁corporate	-9.82794
▁quality	-9.82805
▁Jr	-9.8285
FR	-9.8294
▁Methods	-9.82944
▁victim	-9.83003
▁continues	-9.8301
▁said	-9.83013
▁accessible	-9.83014
▁6	-9.83021
▁Ken	-9.83032
▁uses	-9.83048
▁table	-9.83154
▁happened	-9.83188
▁Only	-9.83196
▁pet	-9.83315
ship	-9.83324
▁Secrets	-9.83388
▁Hope	-9.8339
▁$6.0	-9.83417
bo	-9.83424
▁giving	-9.83436
▁industry	-9.83632
▁epic	-9.83665
▁inner	-9.83674
including	-9.83756
▁1977",	-9.83792
▁prove	-9.84
▁treatment	-9.84035
ever	-9.8407
field	-9.84071
▁introduces	-9.84083
▁terror	-9.84092
▁treasure	-9.84141
▁8	-9.84157
▁record	-9.84163
▁influence	-9.84271
▁price	-9.84343
▁serious	-9.84356
▁Three	-9.84418
▁period	-9.84427
ett	-9.8449
▁Everything	-9.84627
▁estate	-9.84639
CON	-9.8469
pe	-9.847
▁Dogs	-9.84701
▁accident	-9.84757
▁Ethnic	-9.84763
▁Louis	-9.84809
known	-9.84874
▁sound	-9.84898
▁valuable	-9.84912
▁Ph	-9.85025
▁planet	-9.85105
▁Court	-9.85138
Rodale	-9.85289
▁gone	-9.85292
▁shape	-9.85309
▁track	-9.85376
side	-9.85384
Crown	-9.85537
▁players	-9.85634
▁least	-9.85652
▁reason	-9.857
▁Nutrition	-9.8574
▁Chicago	-9.85878
▁aspects	-9.85912
Barnes	-9.8605
▁Healthy	-9.86107
gen	-9.86124
▁Union	-9.8616
▁legendary	-9.86169
▁Texas	-9.86203
red	-9.86378
▁smart	-9.86431
▁Tim	-9.86438
▁kill	-9.86439
▁Jo	-9.86567
ib	-9.86632
▁Hollywood	-9.86679
▁Helen	-9.86704
▁poems	-9.86707
▁Africa	-9.86743
▁Lisa	-9.86855
▁editor	-9.86858
▁Van	-9.86928
▁groups	-9.87014
▁background	-9.87046
▁Even	-9.87091
▁Beginner	-9.87127
▁Anna	-9.87167
▁Bay	-9.87168
▁Sons	-9.87191
▁survival	-9.87193
▁solutions	-9.87202
▁everywhere	-9.8721
▁2011",	-9.87369
od	-9.87392
▁fish	-9.87425
All	-9.87431
ize	-9.87436
▁Magazine	-9.87452
▁Graham	-9.87455
▁7	-9.87469
▁exactly	-9.87504
▁Moon	-9.87637
over	-9.87639
▁Island	-9.87672
▁Center	-9.87834
▁generations	-9.87844
▁Ho	-9.87852
Better	-9.87875
mi	-9.87965
▁plus	-9.88116
▁prayer	-9.88124
▁Games	-9.882
▁Park	-9.8825
▁areas	-9.88251
After	-9.88267
▁content	-9.88294
▁Bo	-9.88326
▁provocative	-9.88365
▁Mike	-9.88425
▁Fire	-9.88464
▁Francisco	-9.88501
▁wanted	-9.88532
▁European	-9.88572
▁betrayal	-9.88637
▁Ba	-9.88639
▁hearts	-9.88658
▁uncover	-9.88682
▁Years	-9.88741
ha	-9.88822
▁terrible	-9.8889
▁Japanese	-9.88891
▁board	-9.88942
pa	-9.88943
▁sources	-9.892
▁lovers	-9.89271
▁guidance	-9.89286
▁Lo	-9.89407
▁biography	-9.89418
▁suggestions	-9.8942
▁Learn	-9.89445
▁innovative	-9.8955
▁draws	-9.89611
▁Word	-9.89633
▁experienced	-9.89638
▁apart	-9.89643
▁feelings	-9.89647
▁Brian	-9.89736
47	-9.89777
▁Have	-9.89799
▁loving	-9.89806
▁scene	-9.89911
▁perhaps	-9.89992
▁Growth	-9.9009
▁landscape	-9.90267
▁Annie	-9.90324
ach	-9.90361
▁main	-9.90412
▁taste	-9.90434
▁helping	-9.90563
▁ingredients	-9.90584
▁OF	-9.9071
so	-9.90715
Describes	-9.90885
▁door	-9.90922
▁Se	-9.90928
▁terrifying	-9.91019
▁lively	-9.91078
▁instead	-9.91094
end	-9.91148
▁proven	-9.91255
ile	-9.91297
tor	-9.913
▁gain	-9.91303
▁Nick	-9.91306
▁sleep	-9.9131
▁names	-9.91313
▁1976",	-9.9132
▁drug	-9.91419
▁dozens	-9.91507
▁Ten	-9.91515
▁setting	-9.91516
▁Da	-9.91521
▁Pro	-9.91544
▁Eric	-9.91553
▁Dictionary	-9.91558
",,,"	-9.9161
▁access	-9.91625
▁movement	-9.91658
▁die	-9.91662
▁mysteries	-9.91694
▁trade	-9.9171
▁Essays	-9.91754
▁Fat	-9.9181
▁economy	-9.91829
▁revealing	-9.91844
▁lover	-9.91852
▁cross	-9.91978
▁affair	-9.92048
▁Howard	-9.92053
io	-9.92118
▁female	-9.92133
▁leaves	-9.92138
▁print	-9.92189
▁wonder	-9.92205
▁thousand	-9.9223
▁positive	-9.92373
▁unusual	-9.92411
▁magical	-9.92568
Houghton	-9.92577
ities	-9.92661
▁Patricia	-9.92669
▁delight	-9.92677
▁trail	-9.92733
▁Rich	-9.92762
▁Regional	-9.92789
▁farm	-9.92898
▁Ed	-9.92954
av	-9.93
ee	-9.93015
▁Success	-9.9308
▁desserts	-9.9313
?""	-9.9313
▁movie	-9.93168
my	-9.93207
▁Spanish	-9.93282
▁Ha	-9.93313
▁profound	-9.93318
▁dinner	-9.9332
On	-9.93402
▁transform	-9.93477
▁copies	-9.93479
▁theory	-9.93495
▁wealthy	-9.935
▁Journey	-9.93517
▁Baseball	-9.93522
making	-9.93561
▁forty	-9.93607
▁rescue	-9.93629
DIV	-9.93646
hi	-9.93696
▁Clark	-9.93793
Step	-9.93971
▁red	-9.93975
▁Level	-9.93982
▁parent	-9.94034
▁vital	-9.94144
▁village	-9.94159
▁opportunity	-9.94162
▁twentieth	-9.94193
well	-9.94233
▁Ro	-9.94234
▁paper	-9.94273
▁Rick	-9.94273
▁didn	-9.9429
41	-9.9432
ranging	-9.94401
He	-9.94406
▁exploration	-9.94439
▁importance	-9.9444
▁title	-9.94447
▁Ko	-9.94489
▁programs	-9.94519
▁reach	-9.94575
▁organizations	-9.94676
▁Photography	-9.94743
ative	-9.94763
▁lifetime	-9.94859
▁providing	-9.94998
▁Po	-9.9503
▁brutal	-9.95105
▁tragic	-9.9513
▁Action	-9.95132
▁Super	-9.95183
▁efforts	-9.95255
▁psychological	-9.95278
▁tries	-9.95297
▁Bruce	-9.95304
Viking	-9.95369
▁Philip	-9.95384
▁stranger	-9.95388
light	-9.95408
▁nutrition	-9.95422
▁purpose	-9.95511
▁Weight	-9.95582
COM	-9.95685
▁happens	-9.95686
▁streets	-9.95869
▁tough	-9.95974
▁Soup	-9.96041
▁$4.8	-9.96124
▁Human	-9.9613
▁falls	-9.96182
tra	-9.96204
▁Creative	-9.96238
▁fears	-9.96239
ring	-9.96265
▁keeping	-9.96371
▁ad	-9.96406
▁pay	-9.96539
▁Chris	-9.96674
▁Using	-9.96684
▁Ne	-9.96781
▁Under	-9.96784
▁believes	-9.96916
DK	-9.97044
▁sisters	-9.97049
▁Simple	-9.97097
▁Manual	-9.97134
▁renowned	-9.97154
▁Before	-9.97242
▁brief	-9.9725
▁Low	-9.97257
▁Back	-9.97358
▁date	-9.97391
eg	-9.97416
▁levels	-9.9743
town	-9.97462
che	-9.9755
▁End	-9.97559
▁Judith	-9.97579
▁Adams	-9.97603
▁selection	-9.97642
▁morning	-9.97694
▁remains	-9.97711
▁witty	-9.97715
▁12	-9.97733
▁youth	-9.97781
▁Where	-9.9779
▁ship	-9.97847
ap	-9.97865
ors	-9.97935
▁anti	-9.97951
▁Ron	-9.97956
▁extensive	-9.9797
▁died	-9.98002
▁Indian	-9.98011
▁week	-9.98044
ING	-9.98045
▁happiness	-9.98125
▁Public	-9.98168
▁Angeles	-9.98179
▁leaving	-9.9827
▁Jeff	-9.98271
ko	-9.98349
","“	-9.98491
pt	-9.98496
▁individuals	-9.98536
based	-9.98539
▁ideal	-9.98559
Free	-9.98691
▁Revolution	-9.98695
▁winning	-9.98766
▁Joy	-9.98834
▁anecdotes	-9.98837
Prentice	-9.9885
▁Biblical	-9.98865
▁Amy	-9.98878
▁Jackson	-9.98907
▁Dark	-9.98933
▁systems	-9.98973
▁River	-9.99093
▁model	-9.99122
▁Reagan	-9.99144
au	-9.9919
▁Russian	-9.99197
▁grace	-9.99275
▁Alexander	-9.99326
▁blue	-9.99481
▁Some	-9.99506
art	-9.99509
▁goals	-9.99523
▁Plan	-9.99546
▁Disciplines	-9.99559
▁authoritative	-9.9958
▁Road	-9.9963
▁Sun	-9.99709
▁Davis	-9.9975
▁humorous	-9.9975
▁partner	-9.99756
▁Martha	-9.99768
▁teaches	-9.99813
▁decade	-9.99857
mon	-9.99865
▁poignant	-9.99873
▁attempt	-9.99957
▁bed	-10.0002
!""	-10.0004
▁Decorating	-10.0005
▁OR	-10.0012
▁Down	-10.0023
ding	-10.0033
▁Anderson	-10.0034
▁Father	-10.0038
We	-10.0039
▁rights	-10.004
▁strategy	-10.0046
▁worth	-10.0049
▁Catherine	-10.0049
▁quiet	-10.005
▁Di	-10.0053
▁notes	-10.0055
▁Gary	-10.0059
▁captures	-10.006
▁worst	-10.0061
▁facing	-10.0061
▁cut	-10.0065
▁pieces	-10.007
▁en	-10.0076
▁riveting	-10.0076
▁Congress	-10.0079
▁lifestyle	-10.0089
ver	-10.009
▁celebration	-10.0094
▁Weekly	-10.0095
▁Emily	-10.0097
▁owner	-10.0099
▁moves	-10.0099
row	-10.0102
▁Wine	-10.0103
iv	-10.0105
▁Humorous	-10.0122
▁products	-10.0124
▁remember	-10.0134
▁enemies	-10.0135
▁Wilson	-10.0136
▁1)	-10.0138
▁sent	-10.0141
▁Modern	-10.0145
▁encounter	-10.0146
▁points	-10.0148
▁started	-10.0151
▁sold	-10.0162
▁Perfect	-10.0164
▁dogs	-10.0165
▁Learning	-10.0165
▁hair	-10.0171
▁Right	-10.0173
▁Poetry	-10.0181
ens	-10.0185
▁$5.5	-10.0187
▁Find	-10.019
▁Robin	-10.0197
▁walk	-10.02
ven	-10.0202
▁plants	-10.0202
▁member	-10.0205
not	-10.021
▁cause	-10.0215
▁realize	-10.0218
ations	-10.0223
▁talent	-10.0225
▁Pa	-10.0227
that	-10.023
▁prevent	-10.0236
▁visual	-10.0239
▁Lu	-10.0246
▁consequences	-10.0258
▁Includes	-10.0261
▁fighting	-10.0261
▁needed	-10.0269
▁feels	-10.0269
ping	-10.0273
▁Miss	-10.0281
...","	-10.0282
▁laugh	-10.0284
▁twelve	-10.0286
▁watch	-10.0286
▁medicine	-10.0288
▁Money	-10.0291
▁ask	-10.0296
tch	-10.0296
▁types	-10.0296
▁Roger	-10.0301
▁Allen	-10.0302
▁turning	-10.0302
▁themes	-10.0307
▁shared	-10.0308
▁happen	-10.031
▁however	-10.0319
▁lawyer	-10.0324
ual	-10.0325
▁feeling	-10.0326
▁beautifully	-10.0327
ible	-10.0327
▁region	-10.0333
▁Mrs	-10.0337
▁cook	-10.0339
▁Hu	-10.0343
fi	-10.035
▁Natural	-10.0353
▁store	-10.0363
▁honor	-10.0369
▁situation	-10.0369
▁difference	-10.0369
▁Well	-10.0374
ondervan	-10.0377
▁materials	-10.0378
berg	-10.0383
▁la	-10.039
▁delightful	-10.0393
▁Donald	-10.0395
▁went	-10.0402
▁broken	-10.0404
▁dealing	-10.0404
▁Techniques	-10.0409
▁Practical	-10.042
▁FBI	-10.0443
▁realizes	-10.045
▁explain	-10.0455
▁maintain	-10.0469
▁devoted	-10.0472
▁administration	-10.0484
▁devastating	-10.0484
▁fantasy	-10.0484
▁Change	-10.049
▁CIA	-10.0492
▁connection	-10.0497
▁inspire	-10.0497
yn	-10.0499
ccompanied	-10.0501
▁Ellen	-10.0505
▁comic	-10.0512
que	-10.0513
▁deeper	-10.0514
▁Per	-10.0523
▁greater	-10.0531
▁easily	-10.0531
▁data	-10.0531
▁Making	-10.0532
▁Color	-10.0533
▁Ar	-10.0538
▁Dave	-10.0539
▁meal	-10.0544
▁Leadership	-10.055
▁sees	-10.055
▁Far	-10.0553
▁starts	-10.0553
▁seek	-10.0554
▁patterns	-10.0561
▁soldiers	-10.0561
John	-10.0565
▁Dream	-10.0567
uff	-10.0568
▁stars	-10.0572
▁horse	-10.0572
▁decides	-10.0577
like	-10.0577
▁presidential	-10.0579
▁teenage	-10.0579
▁Vi	-10.0583
▁Walter	-10.0589
pi	-10.0589
▁surprise	-10.0592
▁bold	-10.0592
▁forget	-10.0595
▁documents	-10.0599
ise	-10.0605
are	-10.0614
▁couple	-10.0616
▁position	-10.0623
▁necessary	-10.0624
▁violent	-10.0624
▁wise	-10.0629
▁Angel	-10.0635
▁director	-10.0635
▁nine	-10.0642
▁unknown	-10.0659
▁Small	-10.0659
Disney	-10.0659
▁increasingly	-10.0679
▁universe	-10.0687
▁Britain	-10.0687
vo	-10.0688
▁elements	-10.0688
▁powers	-10.0689
▁Du	-10.0689
▁Douglas	-10.0691
▁Drawing	-10.0698
ER	-10.0702
▁countries	-10.0703
▁continue	-10.0704
▁oil	-10.0705
▁fit	-10.0706
▁edge	-10.071
za	-10.0711
▁revolution	-10.0711
▁Tony	-10.0722
▁/	-10.0728
PH	-10.0736
▁decide	-10.0737
even	-10.0744
act	-10.0748
▁capture	-10.0753
▁Soviet	-10.0754
▁playing	-10.0761
▁controversial	-10.0766
▁irresistible	-10.0766
▁seemingly	-10.0766
▁poor	-10.0767
▁comfort	-10.0769
▁discussion	-10.0769
▁Bi	-10.077
▁recipe	-10.0771
▁Jonathan	-10.0775
▁copyright	-10.0782
▁fashion	-10.0789
▁waiting	-10.0792
▁Steven	-10.0793
▁crucial	-10.0798
▁clearly	-10.0807
back	-10.0807
▁honest	-10.082
ery	-10.082
HT	-10.0822
ville	-10.0837
Puffin	-10.0846
▁Joan	-10.0846
▁challenging	-10.0862
▁concise	-10.0862
Tor	-10.0862
▁Potter	-10.0868
▁presented	-10.0872
▁losing	-10.0879
▁recognize	-10.088
▁drawings	-10.0888
▁train	-10.0891
▁younger	-10.0891
▁Perform	-10.0894
▁despite	-10.0898
ious	-10.0905
▁Israel	-10.0908
Presents	-10.0908
ization	-10.0911
▁Inside	-10.0912
▁Museum	-10.0913
▁Barry	-10.0914
▁Jennifer	-10.0915
▁Larry	-10.0916
▁Dean	-10.0918
sen	-10.0932
ries	-10.0935
▁Cross	-10.0937
ip	-10.094
There	-10.0958
▁Carolina	-10.096
▁gripping	-10.0961
▁Institute	-10.0961
▁Rachel	-10.0965
▁developing	-10.0973
▁Boy	-10.0975
▁carefully	-10.0981
▁equipment	-10.0992
▁Gold	-10.0992
▁Pubns	-10.1002
ric	-10.1004
mm	-10.1006
ite	-10.1007
▁confront	-10.1007
▁overcome	-10.101
▁fine	-10.1011
,000	-10.1011
▁addresses	-10.1012
▁Morgan	-10.1013
▁Words	-10.1022
▁delivers	-10.1036
▁threatens	-10.1038
▁thinks	-10.1039
▁band	-10.1039
▁reporter	-10.104
▁newly	-10.104
▁insider	-10.1044
▁insightful	-10.105
▁plays	-10.1051
▁closer	-10.1053
▁Sp	-10.1054
▁Italy	-10.1057
war	-10.1072
▁Lawrence	-10.1073
▁astonishing	-10.1074
▁Marriage	-10.1074
▁type	-10.1075
▁Anthony	-10.1076
ran	-10.1076
▁1974",	-10.1078
▁celebrated	-10.1083
▁online	-10.1089
▁biblical	-10.1089
▁environmental	-10.1091
▁speak	-10.1093
▁claim	-10.1101
Here	-10.1102
▁Bear	-10.1103
▁Ex	-10.111
▁situations	-10.1114
▁aging	-10.1115
▁charts	-10.1119
▁above	-10.1122
▁legacy	-10.1122
▁managers	-10.1128
▁Eve	-10.1132
▁serve	-10.1137
ag	-10.1141
▁drive	-10.1144
follow	-10.1146
▁$5.4	-10.1152
▁Planet	-10.1157
▁Chapter	-10.1164
cent	-10.1168
▁30	-10.1175
▁bar	-10.1181
oo	-10.1183
Do	-10.1194
▁showing	-10.1199
▁Row	-10.1199
▁Russia	-10.1204
▁Geographic	-10.1205
▁Asia	-10.1212
▁phone	-10.1216
▁straight	-10.1221
▁sun	-10.1222
▁Tree	-10.1223
▁prepared	-10.1225
ki	-10.1229
▁Atlantic	-10.1229
Be	-10.1231
rd	-10.1234
lon	-10.1241
▁site	-10.125
▁destiny	-10.1255
▁Pat	-10.1262
58	-10.1265
▁Free	-10.127
▁struggling	-10.1271
▁dying	-10.1272
our	-10.1274
▁troubled	-10.128
▁informative	-10.1288
▁Patrick	-10.1288
▁clues	-10.1293
ette	-10.1304
▁poetry	-10.1306
▁Adventures	-10.1312
▁succeed	-10.1317
▁contain	-10.1318
▁adult	-10.1322
▁feature	-10.1324
▁built	-10.1327
▁fortune	-10.1329
Oxford	-10.133
▁confidence	-10.1333
▁reputation	-10.1338
▁revenge	-10.1338
▁hospital	-10.1353
▁ruthless	-10.1355
▁radio	-10.1356
▁quite	-10.1358
▁busy	-10.136
▁Su	-10.136
▁bright	-10.1361
▁boyfriend	-10.1364
▁Julie	-10.1365
▁Wild	-10.1367
▁demonstrates	-10.1368
▁sections	-10.1378
▁promise	-10.1379
▁Prince	-10.1386
▁argues	-10.1386
si	-10.1386
▁impossible	-10.1389
▁innocent	-10.1389
▁birthday	-10.1391
▁defense	-10.1395
▁Written	-10.14
▁faces	-10.1406
▁Testament	-10.1406
▁Moore	-10.1407
▁1975",	-10.1411
▁Air	-10.1411
▁grand	-10.1414
▁handle	-10.1419
▁Honor	-10.142
▁complicated	-10.1424
▁safety	-10.1425
ide	-10.1431
▁Cal	-10.1441
▁Engineering	-10.1442
ik	-10.1445
▁Four	-10.1449
▁core	-10.1455
low	-10.1457
▁worse	-10.1457
▁finest	-10.1459
▁Kitchen	-10.146
▁expanded	-10.1467
cu	-10.1468
▁chief	-10.147
don	-10.1473
▁fellow	-10.1474
▁divorce	-10.1481
ade	-10.1483
▁evolution	-10.149
▁network	-10.1498
oc	-10.15
▁personality	-10.1506
▁minutes	-10.1518
▁Style	-10.1526
▁ride	-10.1526
qui	-10.1528
▁Griffin	-10.1531
▁Parents	-10.1533
ure	-10.1534
▁timeless	-10.1534
▁cr	-10.1544
▁grown	-10.1544
▁mental	-10.1549
▁allow	-10.1553
▁mom	-10.1558
▁previous	-10.1561
▁Manhattan	-10.1561
53	-10.1565
▁coast	-10.1567
Wiley	-10.157
▁nuclear	-10.1577
▁covering	-10.1578
▁Ka	-10.158
▁Politics	-10.158
▁example	-10.1581
▁Ultimate	-10.1584
▁Communications	-10.1585
▁21	-10.1594
▁hear	-10.1594
▁groundbreaking	-10.1594
▁invaluable	-10.1598
▁Together	-10.1599
▁civil	-10.1611
▁grandmother	-10.1611
▁suspect	-10.1612
▁event	-10.1616
▁faced	-10.162
▁bond	-10.1624
▁memorable	-10.1629
▁shopping	-10.1629
▁Game	-10.1629
▁Islam	-10.1634
▁expect	-10.1635
▁Ga	-10.1645
▁practices	-10.1648
▁threat	-10.1648
▁accounts	-10.1653
▁Holidays	-10.1655
▁historic	-10.1659
▁Policy	-10.1663
▁diverse	-10.1664
▁Was	-10.1664
ath	-10.167
▁arrives	-10.1678
▁piece	-10.1681
▁entries	-10.1681
▁hunt	-10.1682
▁meat	-10.1683
▁apply	-10.1685
▁Look	-10.1689
ward	-10.1689
▁Live	-10.1692
▁$5.3	-10.1697
▁Windows	-10.1697
fer	-10.1698
▁$9.8	-10.1698
▁Perennial	-10.17
ped	-10.1707
▁arms	-10.1709
ru	-10.1711
▁Tie	-10.1713
▁context	-10.1716
▁raised	-10.1718
▁worked	-10.1722
▁pleasure	-10.1724
▁communication	-10.1724
.""","	-10.1729
▁philosophy	-10.1733
▁Program	-10.1733
▁classroom	-10.1734
▁Ri	-10.1737
▁followed	-10.1739
▁asked	-10.1741
▁Los	-10.1746
▁Encyclopedia	-10.175
▁Battle	-10.1751
ably	-10.1753
▁interested	-10.1755
▁Space	-10.1759
▁Stewart	-10.1762
▁Play	-10.1763
▁played	-10.1768
▁Side	-10.1771
▁Na	-10.1772
▁legend	-10.1777
can	-10.1782
▁map	-10.1783
▁Smart	-10.1783
▁embark	-10.1786
▁$6.2	-10.1786
▁Ever	-10.1789
▁mis	-10.1794
▁thoughts	-10.1802
▁kid	-10.1803
▁intellectual	-10.1803
▁elegant	-10.1805
▁mo	-10.1806
▁gifts	-10.1809
▁Security	-10.1821
▁telling	-10.1822
▁appeal	-10.1825
▁Lost	-10.1828
▁Har	-10.183
Putnam	-10.1834
▁voices	-10.1839
▁adults	-10.184
▁weeks	-10.1846
▁sexy	-10.1846
▁11	-10.185
Scribner	-10.1852
National	-10.1852
▁India	-10.1854
▁handbook	-10.1859
▁prose	-10.1861
▁Vol	-10.1864
ze	-10.1876
▁startling	-10.1878
▁Norman	-10.1882
▁bit	-10.1883
▁cases	-10.1884
▁Need	-10.189
▁recently	-10.1891
▁developed	-10.1892
▁commitment	-10.1893
nie	-10.1893
▁daughters	-10.1896
▁photography	-10.1896
ill	-10.1896
▁super	-10.1904
▁200	-10.1905
▁Too	-10.1907
▁golf	-10.1911
▁huge	-10.1912
▁battles	-10.1919
▁Top	-10.1923
ug	-10.1924
bi	-10.1932
▁Kelly	-10.1932
▁identify	-10.1932
▁Warren	-10.1936
▁match	-10.1941
▁marketing	-10.1941
▁pictures	-10.1942
▁Friendship	-10.1945
More	-10.1945
▁scenes	-10.1946
▁subjects	-10.1947
▁Golf	-10.1948
vis	-10.1964
▁particular	-10.1965
▁revealed	-10.1966
▁Joyce	-10.1968
▁drugs	-10.1969
▁1973",	-10.1969
▁ahead	-10.197
▁manage	-10.1975
▁Author	-10.1976
▁Never	-10.1979
free	-10.198
▁schools	-10.1984
▁army	-10.1985
▁rock	-10.1987
▁Pacific	-10.1987
water	-10.1992
min	-10.1993
▁Sa	-10.1995
▁Am	-10.2001
▁firm	-10.2008
▁investment	-10.2015
▁wrote	-10.2017
▁Finance	-10.2017
cing	-10.2019
▁Franklin	-10.2025
▁letter	-10.2028
99	-10.2031
▁Tips	-10.2033
▁Relations	-10.2035
▁numerous	-10.2035
▁biggest	-10.2035
LE	-10.2036
▁Truth	-10.2037
▁Roman	-10.2045
▁bear	-10.2047
▁aid	-10.2047
▁scientists	-10.2049
▁professor	-10.2053
▁Dishes	-10.2053
▁15	-10.2056
▁traces	-10.2056
▁See	-10.2064
news	-10.2066
bs	-10.2069
▁criminal	-10.207
▁lines	-10.2071
▁crew	-10.2072
▁prison	-10.2074
▁inspirational	-10.2081
▁version	-10.2082
rick	-10.2088
wa	-10.209
▁debate	-10.2092
▁hopes	-10.2092
▁increase	-10.2093
▁Ray	-10.2097
▁imagined	-10.2101
▁habits	-10.2101
▁ends	-10.2105
▁Wood	-10.2107
▁novelist	-10.2108
▁Carter	-10.2109
ail	-10.2114
▁Fun	-10.2116
▁Summer	-10.2117
(	-10.2123
▁organized	-10.2126
▁surface	-10.2126
ock	-10.2126
▁40	-10.213
tter	-10.2133
ai	-10.2135
▁r	-10.2135
▁Without	-10.2136
▁Gu	-10.2137
▁Princess	-10.2137
▁USA	-10.2142
▁Criticism	-10.2144
▁dazzling	-10.2144
Harvest	-10.2144
▁vegetables	-10.2149
▁Japan	-10.2151
▁haunted	-10.2152
▁traditions	-10.2161
gan	-10.2161
▁17	-10.2163
▁seeking	-10.2164
▁25	-10.2166
▁held	-10.2167
tt	-10.2167
▁Murder	-10.2169
Dell	-10.2173
▁vacation	-10.218
▁disaster	-10.2182
ana	-10.2184
ties	-10.2195
▁winner	-10.2201
▁Ca	-10.2204
▁puts	-10.2208
▁Dead	-10.2212
64	-10.2214
Publications	-10.2215
▁Ross	-10.2217
▁felt	-10.2217
▁Sh	-10.2223
▁Mountain	-10.2226
fat	-10.2232
▁green	-10.2232
▁Friends	-10.2233
▁enduring	-10.2237
▁Roberts	-10.2243
▁definitive	-10.2254
▁ma	-10.2254
▁guidelines	-10.2255
born	-10.2256
▁Ways	-10.2257
▁causes	-10.2267
▁fifteen	-10.2269
▁attorney	-10.2272
▁Ideas	-10.2279
▁pressure	-10.2287
▁species	-10.2291
▁tool	-10.2291
▁lie	-10.2297
rr	-10.2299
how	-10.2302
▁budget	-10.2317
more	-10.2319
▁send	-10.2329
▁per	-10.233
▁Janet	-10.2332
▁Water	-10.2335
▁Bell	-10.2335
Da	-10.2337
rate	-10.2339
▁options	-10.2348
▁press	-10.2349
▁cool	-10.2349
stone	-10.2359
0,000	-10.2359
▁area	-10.2365
▁existence	-10.2365
▁gold	-10.2366
▁cutting	-10.2367
▁Say	-10.2369
▁Jerry	-10.2371
▁killing	-10.2373
▁Stephanie	-10.2374
▁reform	-10.2375
▁Bad	-10.2382
▁recounts	-10.2382
▁size	-10.2386
bu	-10.2395
▁Harvard	-10.2396
▁Fe	-10.2397
▁ice	-10.2401
▁ambitious	-10.2402
▁paperback	-10.2403
▁150	-10.2403
▁winter	-10.2405
AL	-10.2407
▁Chocolate	-10.2407
istic	-10.2411
▁US	-10.2414
▁artists	-10.2414
▁$7.2	-10.2422
amp	-10.2427
▁Part	-10.2432
▁ball	-10.2435
▁Days	-10.2436
▁Essential	-10.2441
▁concerns	-10.2443
▁nutritional	-10.2447
▁add	-10.2453
▁Bar	-10.2453
▁benefits	-10.2453
▁opportunities	-10.2459
▁Ronald	-10.2463
▁v	-10.2469
▁forms	-10.2471
have	-10.2471
▁starting	-10.2473
▁image	-10.2477
▁Teaching	-10.2485
▁Prayer	-10.2488
▁weapons	-10.2488
term	-10.2495
▁meeting	-10.2495
▁fitness	-10.2499
▁appears	-10.2507
▁draw	-10.2509
▁Morris	-10.2511
▁ill	-10.2512
▁craft	-10.2514
▁Adam	-10.2517
▁wish	-10.2527
▁compassion	-10.2534
▁Philosophy	-10.2534
king	-10.2537
▁plant	-10.2543
uc	-10.2544
▁thrilling	-10.2552
▁tricks	-10.2557
die	-10.2558
▁Take	-10.2565
▁Diana	-10.2573
first	-10.2573
▁cities	-10.2574
▁shaped	-10.2582
▁Seven	-10.2583
tion	-10.2586
▁daring	-10.2591
j	-10.2592
▁Pet	-10.2592
▁$6.1	-10.2594
▁scandal	-10.2622
▁either	-10.2629
▁mothers	-10.2634
De	-10.2643
▁storm	-10.2646
▁Gordon	-10.2649
▁restaurants	-10.2651
▁parenting	-10.2653
▁Apple	-10.2654
▁raise	-10.2654
▁Army	-10.2656
▁Li	-10.2662
▁respect	-10.2671
▁Kevin	-10.2673
▁Once	-10.2675
▁investigate	-10.2681
▁trial	-10.2683
▁ourselves	-10.2687
▁brilliantly	-10.2693
▁covered	-10.2694
▁Sex	-10.2702
▁intriguing	-10.2706
▁combat	-10.2706
▁street	-10.271
▁holds	-10.2713
rich	-10.2715
▁mix	-10.2717
▁AND	-10.2717
▁forward	-10.272
▁cousin	-10.2726
▁storyteller	-10.2726
▁radical	-10.2729
▁Lake	-10.2732
fe	-10.2736
▁Beth	-10.2737
▁widely	-10.2744
▁senior	-10.2745
▁Victor	-10.2745
▁authority	-10.2759
▁origins	-10.2759
▁earlier	-10.2764
▁victims	-10.2765
▁spy	-10.2773
▁Th	-10.2779
So	-10.2786
▁worldwide	-10.2786
▁Show	-10.2787
▁indispensable	-10.2803
world	-10.2804
▁Eat	-10.281
She	-10.2819
ments	-10.282
▁Service	-10.282
▁effectively	-10.2822
▁remain	-10.2827
▁sites	-10.2831
cha	-10.2834
▁emotions	-10.2834
▁genius	-10.2836
▁Cold	-10.2837
▁chilling	-10.2839
iest	-10.2841
▁asks	-10.2841
▁Lucy	-10.2844
depth	-10.2845
ough	-10.2849
▁significant	-10.285
▁Sweet	-10.2854
uck	-10.2855
▁charm	-10.2856
▁nightmare	-10.2861
▁competition	-10.2862
until	-10.2865
Dr	-10.2869
▁Matt	-10.2873
▁skill	-10.2879
ff	-10.2879
▁breathtaking	-10.2881
▁pick	-10.2882
Dutton	-10.2884
Why	-10.2887
▁basics	-10.2889
▁officer	-10.289
▁king	-10.2895
▁Harris	-10.2898
▁triumph	-10.2899
▁percent	-10.29
▁clean	-10.2917
board	-10.2918
▁depression	-10.2921
▁standard	-10.2921
▁humanity	-10.2936
head	-10.2936
▁newspaper	-10.2936
mar	-10.294
lar	-10.2948
lthough	-10.295
▁destruction	-10.296
70	-10.2963
▁Dick	-10.2974
▁matters	-10.2979
▁magnificent	-10.298
▁Rice	-10.2984
▁Kay	-10.2985
jo	-10.2985
▁Grant	-10.299
page	-10.2996
▁household	-10.3001
▁brothers	-10.3009
▁surrounding	-10.3009
▁circumstances	-10.3009
▁Fish	-10.3012
law	-10.3017
▁Roosevelt	-10.302
▁remote	-10.302
▁civilization	-10.302
▁elite	-10.302
▁Marie	-10.3023
▁Rey	-10.3025
▁marry	-10.303
ek	-10.3034
▁soups	-10.3041
▁Classic	-10.3048
▁Because	-10.3051
▁focuses	-10.3051
▁Sal	-10.3056
▁encounters	-10.3056
▁Diane	-10.306
▁revolutionary	-10.3061
▁2)","	-10.3063
▁combines	-10.3068
▁Five	-10.3071
▁direct	-10.3072
▁handy	-10.3073
▁Betty	-10.3075
▁desert	-10.3078
▁clever	-10.308
▁sharing	-10.308
▁effort	-10.3081
▁saw	-10.3084
▁Emma	-10.3084
My	-10.3086
▁Julia	-10.3095
▁progress	-10.3096
▁Own	-10.3097
▁kept	-10.31
▁Peace	-10.3106
▁transformed	-10.3111
ture	-10.3113
▁Form	-10.3115
friendly	-10.3115
▁illness	-10.3116
▁structure	-10.3117
she	-10.3123
▁citizens	-10.313
▁reflect	-10.3133
▁paintings	-10.3133
RN	-10.3143
▁fundamental	-10.3156
▁Getting	-10.316
▁Ireland	-10.316
▁grew	-10.316
Chronicle	-10.3174
▁101	-10.3179
▁overview	-10.3183
ect	-10.3184
▁interesting	-10.3184
class	-10.3186
▁transformation	-10.3186
▁Companion	-10.3186
▁Blood	-10.319
-19	-10.3191
lie	-10.3193
▁library	-10.32
ability	-10.3203
▁Daily	-10.3207
▁produce	-10.3207
▁Spiritual	-10.322
▁di	-10.3223
▁blend	-10.3231
▁highest	-10.3232
▁Nora	-10.3233
▁inter	-10.3233
▁brave	-10.3247
og	-10.3248
▁painting	-10.325
▁services	-10.325
▁heroes	-10.3252
Co	-10.326
▁mountain	-10.3263
sch	-10.3267
▁task	-10.327
▁am	-10.3277
▁Ke	-10.3278
▁double	-10.3283
filled	-10.3292
▁box	-10.3293
▁digital	-10.3302
▁retirement	-10.3302
edge	-10.3304
▁Rock	-10.3305
▁Soon	-10.3306
▁Kenneth	-10.3307
▁Force	-10.3311
▁Six	-10.3324
▁code	-10.3324
▁professionals	-10.3325
Discusses	-10.3326
▁packed	-10.333
▁Carl	-10.3338
▁explosive	-10.3343
▁preparing	-10.3343
▁Nicholas	-10.3349
▁parties	-10.3351
▁reasons	-10.3353
▁2000	-10.3354
▁Help	-10.3358
▁Ta	-10.3361
▁publication	-10.3362
ang	-10.3364
▁bizarre	-10.3364
▁grief	-10.3364
ble	-10.3368
ep	-10.3371
▁Germany	-10.3382
▁Future	-10.3385
▁tea	-10.3389
▁Putnam	-10.339
▁separate	-10.339
▁1971",	-10.3392
gu	-10.3396
▁Billy	-10.3396
uch	-10.3396
▁Pe	-10.3398
▁Matthew	-10.3401
mann	-10.3406
▁Sara	-10.3407
▁Jon	-10.3415
gi	-10.3424
▁chaos	-10.3426
Bethany	-10.3429
▁applications	-10.3432
▁$5.6	-10.3443
▁Mexico	-10.3447
▁choosing	-10.3447
▁gorgeous	-10.3447
pp	-10.3447
▁Wisdom	-10.345
rie	-10.3451
▁Case	-10.3455
▁Volume	-10.3456
Ma	-10.3465
▁software	-10.3467
▁independent	-10.3469
▁goal	-10.3474
▁incredible	-10.3488
▁capital	-10.3496
who	-10.35
▁male	-10.3502
vin	-10.3507
▁Parker	-10.3509
▁resist	-10.351
▁homes	-10.3513
▁camp	-10.3519
▁Along	-10.352
▁dynamic	-10.353
▁Terry	-10.3531
▁Many	-10.3531
gar	-10.3531
▁Pulitzer	-10.3534
▁Hard	-10.3536
ned	-10.3536
▁chronicles	-10.3539
▁Cha	-10.3543
▁satisfying	-10.3549
port	-10.3553
▁dance	-10.3555
▁rule	-10.3557
▁Search	-10.356
▁1972",	-10.356
ft	-10.3562
IN	-10.3567
ev	-10.3568
▁preparation	-10.3572
▁sample	-10.3572
▁index	-10.3572
▁treat	-10.3574
▁Claire	-10.358
▁Let	-10.3583
▁glimpse	-10.3593
▁Sleuths	-10.3593
▁staff	-10.3593
▁Ted	-10.3599
▁boss	-10.3608
▁client	-10.3609
▁cop	-10.361
▁Notes	-10.3611
▁neighborhood	-10.3611
▁Dunlap	-10.3614
▁unprecedented	-10.3614
▁Sandra	-10.3617
Readers	-10.3627
▁stands	-10.363
▁bringing	-10.3642
▁responsible	-10.3656
▁Room	-10.3659
▁terrorist	-10.3664
▁Introduction	-10.3664
▁Research	-10.3666
▁parts	-10.3668
med	-10.367
▁Pie	-10.3671
air	-10.3673
▁restaurant	-10.3674
hu	-10.3675
▁shot	-10.3676
▁gave	-10.3678
▁Editions	-10.3682
▁sales	-10.3682
room	-10.3684
▁extra	-10.3685
▁painful	-10.3686
▁Jay	-10.369
▁Easter	-10.369
▁election	-10.3697
▁Beyond	-10.3698
ving	-10.3698
▁globe	-10.3699
▁Development	-10.3704
han	-10.3706
▁lady	-10.3709
▁larger	-10.3709
Book	-10.3711
▁Among	-10.3713
ita	-10.3719
tle	-10.3723
▁Celebrations	-10.3723
Grosset	-10.3723
▁Beach	-10.3726
▁Behind	-10.3726
▁unlikely	-10.3729
▁Beautiful	-10.3739
ue	-10.374
▁bound	-10.3741
▁Snow	-10.3746
▁Bra	-10.3747
net	-10.3747
ino	-10.3748
▁Master	-10.376
right	-10.3762
▁embrace	-10.377
▁Building	-10.3773
Ch	-10.3773
Sterling	-10.3774
▁thoughtful	-10.3779
az	-10.378
▁Holt	-10.378
▁articles	-10.3783
▁proud	-10.3786
stein	-10.3795
▁Culture	-10.3799
▁eccentric	-10.3806
▁pursuit	-10.3806
▁football	-10.3806
▁executive	-10.3806
NO	-10.3809
▁sacrifice	-10.3809
▁cats	-10.3819
▁haunting	-10.382
▁Hunter	-10.3825
▁fought	-10.3828
▁sophisticated	-10.3828
▁patients	-10.3831
▁16	-10.3834
▁fierce	-10.3834
▁Questions	-10.3839
▁Baker	-10.3841
▁styles	-10.3846
▁failure	-10.3851
▁target	-10.3851
▁Fox	-10.3853
▁Stanley	-10.3855
▁kinds	-10.3855
While	-10.386
▁player	-10.3863
▁issue	-10.3869
▁Kathleen	-10.3871
▁decorating	-10.3874
ane	-10.3884
▁determine	-10.3888
▁ensure	-10.3888
▁bodies	-10.3892
▁respected	-10.3895
▁sub	-10.3897
▁Places	-10.3909
ED	-10.3909
▁ch	-10.3914
▁victory	-10.3914
▁suicide	-10.3914
ho	-10.3916
▁truths	-10.3916
▁Bu	-10.3921
▁runs	-10.393
▁suffering	-10.3936
▁bitter	-10.3936
▁Freedom	-10.3936
▁Jefferson	-10.3936
▁Greek	-10.3936
▁managing	-10.3939
▁Lou	-10.3939
▁Also	-10.394
▁Government	-10.394
▁Maggie	-10.3943
▁imagine	-10.3948
▁dedicated	-10.3959
vent	-10.3961
▁sharp	-10.3964
▁abuse	-10.3966
▁myth	-10.3972
▁selected	-10.3976
▁authentic	-10.3978
▁fabulous	-10.398
▁tried	-10.3987
▁terrorism	-10.399
Henry	-10.3992
▁minds	-10.3992
▁card	-10.3992
tain	-10.3997
oe	-10.3999
▁deliver	-10.4001
▁Jeffrey	-10.4002
▁Beauty	-10.4002
▁obsession	-10.4002
▁chosen	-10.4003
▁Charlie	-10.4008
▁hell	-10.4008
ice	-10.4012
ged	-10.4014
promo	-10.4021
▁witness	-10.4023
▁spring	-10.4024
▁Russell	-10.4024
▁tiny	-10.4026
▁opens	-10.4028
▁advanced	-10.4029
▁condition	-10.403
▁beliefs	-10.4039
▁Use	-10.4042
▁Courses	-10.4042
▁array	-10.4046
car	-10.4047
▁couples	-10.4049
▁Deborah	-10.4051
ration	-10.4053
!:	-10.4053
val	-10.4065
▁Christians	-10.4067
▁command	-10.4069
Hyperion	-10.407
▁fair	-10.4071
▁tests	-10.4083
ther	-10.4084
▁creation	-10.4086
▁tree	-10.4091
▁method	-10.4096
▁distinguished	-10.4096
▁veteran	-10.4098
ky	-10.4098
▁Rome	-10.41
▁Bernard	-10.4112
▁trademark	-10.4112
▁Wright	-10.4117
▁Full	-10.4119
▁Cole	-10.412
▁Mor	-10.412
▁heard	-10.4121
hose	-10.4126
ball	-10.4131
▁foundation	-10.4131
▁heal	-10.4133
▁willing	-10.4133
▁intelligent	-10.4137
▁scholars	-10.4137
▁wait	-10.4139
▁candid	-10.414
▁tax	-10.414
▁check	-10.4143
▁suggests	-10.4145
▁Ge	-10.4146
▁slow	-10.4146
▁snow	-10.4147
▁creatures	-10.415
▁central	-10.4156
▁hurt	-10.4157
▁lonely	-10.416
▁En	-10.4165
▁plain	-10.4172
des	-10.4174
▁decided	-10.4177
▁actions	-10.4178
▁chocolate	-10.4179
▁solid	-10.4179
.""—	-10.4181
▁Pre	-10.4188
▁vampire	-10.4189
▁pull	-10.4189
style	-10.419
▁guy	-10.4192
Basic	-10.4193
▁Son	-10.4196
▁proves	-10.4198
▁celebrate	-10.4199
▁Lynn	-10.42
▁committed	-10.4202
▁appear	-10.4202
▁stuff	-10.4212
▁guilt	-10.4213
INT	-10.4223
▁easier	-10.4224
▁excitement	-10.4224
▁drawing	-10.4224
▁Instead	-10.4227
▁Kim	-10.4234
▁machine	-10.4236
▁conditions	-10.424
▁walks	-10.4242
▁moved	-10.4243
▁presidency	-10.4246
▁Novels	-10.4246
▁taught	-10.4246
▁beneath	-10.4246
br	-10.4253
maker	-10.4256
rk	-10.4266
tri	-10.4268
▁masterpiece	-10.4269
▁Dreams	-10.4272
▁manual	-10.4277
▁alternative	-10.428
▁Party	-10.4282
▁flowers	-10.4284
Oxmoor	-10.4291
down	-10.4293
▁plenty	-10.4295
▁Judy	-10.4296
▁shop	-10.43
▁roots	-10.4304
▁Santa	-10.4305
▁Crime	-10.4311
cy	-10.4312
▁spectacular	-10.4314
▁disturbing	-10.4317
▁Hart	-10.4318
▁Filled	-10.4319
▁personalities	-10.4319
▁stock	-10.4323
ress	-10.4325
▁neighbor	-10.4326
▁Brand	-10.4329
▁falling	-10.433
▁demands	-10.4336
▁enhance	-10.4336
▁native	-10.4337
▁address	-10.4346
▁vibrant	-10.4359
▁attempts	-10.4359
▁descriptions	-10.436
▁storytelling	-10.4361
▁chronicle	-10.4366
!,"	-10.4367
▁Jake	-10.437
▁readable	-10.4372
▁politicians	-10.4375
▁catch	-10.4382
▁Common	-10.4382
▁commentary	-10.4382
▁promises	-10.4382
▁Lives	-10.4382
▁approaches	-10.4383
▁Heaven	-10.4387
▁Cooper	-10.4389
rt	-10.4395
▁gun	-10.4402
▁democracy	-10.4405
ris	-10.441
▁buried	-10.4418
▁Bon	-10.4426
ann	-10.4427
cher	-10.4428
▁flight	-10.4429
▁dating	-10.443
Signet	-10.4436
ng	-10.4436
76	-10.4443
▁combination	-10.4444
▁gentle	-10.4446
▁Point	-10.4448
▁conspiracy	-10.4451
▁relations	-10.4462
▁Col	-10.4466
▁Than	-10.4467
▁broad	-10.4469
▁Want	-10.4472
ump	-10.4473
▁ocean	-10.4474
▁saga	-10.4474
▁feet	-10.4475
▁Ford	-10.4479
▁Favorite	-10.4481
▁nineteenth	-10.4483
▁Projects	-10.4488
Three	-10.4491
▁spending	-10.4492
▁fan	-10.4493
▁richly	-10.4498
▁Gi	-10.4499
▁Winter	-10.4501
▁crack	-10.4507
hood	-10.4512
▁multi	-10.4516
▁0	-10.4517
ologist	-10.4517
aw	-10.4518
▁related	-10.4518
▁appropriate	-10.452
▁Florida	-10.452
▁influential	-10.452
▁Devotional	-10.452
▁gang	-10.452
▁Harold	-10.4523
▁charge	-10.4536
▁hide	-10.4538
▁mid	-10.4538
▁count	-10.454
▁travels	-10.4542
▁1970",	-10.4544
▁Sharon	-10.4545
▁Bro	-10.4545
▁proper	-10.4551
▁unravel	-10.4558
Harcourt	-10.4561
▁Robinson	-10.4569
▁eventually	-10.4569
▁Third	-10.4574
▁intense	-10.4587
▁accept	-10.4588
▁federal	-10.4589
▁Call	-10.4593
▁patient	-10.4596
▁Still	-10.46
▁sh	-10.46
▁abandoned	-10.4601
▁poet	-10.4605
▁shadow	-10.4605
▁pair	-10.4607
▁captured	-10.4611
▁CEO	-10.4613
ological	-10.4615
▁Roy	-10.462
ass	-10.4621
ong	-10.4622
▁provided	-10.4631
▁official	-10.4634
▁Academy	-10.4636
▁Board	-10.4638
some	-10.4642
cl	-10.4643
▁blind	-10.4659
▁League	-10.466
▁Nation	-10.4661
▁numbers	-10.4662
del	-10.4663
▁$5.7	-10.4668
du	-10.4669
▁immediately	-10.4669
fl	-10.467
▁Gray	-10.4672
▁Gra	-10.4674
▁teens	-10.4676
▁wake	-10.4682
▁Process	-10.4683
▁tender	-10.469
▁Hannah	-10.4691
▁served	-10.4704
▁Empire	-10.4706
▁doctors	-10.4709
▁Walker	-10.4712
ken	-10.4712
▁speed	-10.4718
▁Training	-10.4723
Troll	-10.4725
TH	-10.4726
▁aspect	-10.4729
rin	-10.473
▁window	-10.473
▁prominent	-10.473
▁scholarship	-10.473
▁Carolyn	-10.4732
▁sport	-10.4732
▁Tale	-10.4742
▁celebrates	-10.4744
▁attacks	-10.4745
▁skin	-10.4748
▁likely	-10.4751
▁Plus	-10.4753
two	-10.4757
▁searching	-10.4757
▁Jill	-10.4758
▁Financial	-10.4759
▁Square	-10.4763
▁anger	-10.4765
▁Si	-10.4766
▁returned	-10.477
▁responsibility	-10.4777
▁Georgia	-10.4783
▁owners	-10.4784
▁Tell	-10.4793
▁presence	-10.4801
▁bride	-10.4801
▁historian	-10.4802
▁soldier	-10.4803
ja	-10.4804
▁Eastern	-10.4808
▁wonders	-10.481
▁Yourself	-10.4814
▁enable	-10.4814
▁employees	-10.4814
▁Ch	-10.4816
▁lack	-10.4817
▁Wind	-10.4824
gate	-10.4824
▁Next	-10.4825
▁Valley	-10.4826
▁largest	-10.483
▁Pocket	-10.4832
▁Concepts	-10.4836
▁empire	-10.4849
▁Obama	-10.4849
▁chicken	-10.4849
▁dollars	-10.4852
▁Maryland	-10.4856
hr	-10.4862
▁myths	-10.4868
▁trends	-10.4868
▁normal	-10.4868
ax	-10.4871
▁IN	-10.4873
Explains	-10.4873
▁Hardcover	-10.4873
▁cope	-10.4873
▁Walt	-10.4875
▁Literature	-10.4876
▁County	-10.4877
▁successfully	-10.4898
▁Em	-10.4899
sky	-10.4902
▁knowing	-10.4904
▁raising	-10.4905
Ha	-10.4907
itt	-10.4907
▁lay	-10.4908
▁failed	-10.4912
▁Dar	-10.4912
▁Win	-10.4915
▁shattered	-10.4926
▁ones	-10.493
▁l	-10.4933
ov	-10.4933
▁reviews	-10.4935
ons	-10.4939
changing	-10.4942
▁titles	-10.4944
▁Medicine	-10.4945
▁j	-10.4947
▁Bur	-10.4951
▁Card	-10.4952
▁Office	-10.4958
fire	-10.4967
▁Ver	-10.4971
paced	-10.4978
50	-10.4979
▁Based	-10.499
▁academic	-10.4993
▁fly	-10.4999
▁foot	-10.4999
▁Te	-10.5
▁Grand	-10.5001
▁Gar	-10.5001
▁interests	-10.5002
▁Fred	-10.5006
)",,,	-10.5007
ef	-10.5008
▁encourage	-10.5008
▁describe	-10.5009
▁Ab	-10.5014
▁sight	-10.5018
▁Sha	-10.5018
▁loyalty	-10.5018
▁Practice	-10.5022
▁vi	-10.5026
▁Greg	-10.5042
ast	-10.5042
▁murderer	-10.5043
▁queen	-10.5044
gra	-10.5049
▁Hand	-10.5053
▁counter	-10.5055
94	-10.5055
▁Value	-10.5062
nce	-10.5063
▁attractive	-10.5067
mb	-10.5068
▁views	-10.5071
▁belief	-10.5074
ium	-10.5075
▁puzzle	-10.5075
▁Start	-10.5088
▁rep	-10.509
▁Discover	-10.5092
▁salads	-10.5095
▁weather	-10.5095
▁Rules	-10.5096
▁effect	-10.5097
▁audience	-10.5099
▁motion	-10.5105
▁caring	-10.5112
▁Halloween	-10.5115
▁Jordan	-10.5115
Plume	-10.5118
▁pass	-10.5124
ction	-10.5125
▁Fast	-10.5127
AS	-10.5127
▁listen	-10.5128
app	-10.5134
▁lasting	-10.5136
▁midst	-10.5136
▁domestic	-10.514
▁Drama	-10.5144
▁Ger	-10.5147
▁Marc	-10.5148
▁Sally	-10.515
▁watching	-10.5152
▁aren	-10.516
af	-10.5161
▁flavor	-10.5163
▁Circle	-10.5164
Anchor	-10.5165
▁girlfriend	-10.5166
▁Sue	-10.5169
▁affect	-10.5172
▁advantage	-10.5175
▁couldn	-10.5177
ps	-10.5178
ns	-10.518
▁menus	-10.5184
▁illustrate	-10.5185
Touchstone	-10.5192
▁Native	-10.5193
▁realistic	-10.5193
▁Bride	-10.5194
▁McC	-10.5196
▁lots	-10.5198
▁Stan	-10.5198
▁correct	-10.52
unk	-10.5206
▁devotion	-10.5206
▁crash	-10.5208
▁debt	-10.5214
▁apartment	-10.5219
▁Rebecca	-10.5219
▁Captain	-10.5222
▁alien	-10.5225
▁differences	-10.5226
▁Happy	-10.5229
▁gifted	-10.523
▁trusted	-10.5232
▁video	-10.5235
form	-10.5235
▁symptoms	-10.5237
▁nor	-10.5238
▁Leonard	-10.524
▁urban	-10.5246
ear	-10.5248
part	-10.5248
ren	-10.5255
▁bird	-10.526
▁assignment	-10.5264
▁keeps	-10.5266
▁expected	-10.527
care	-10.5277
▁response	-10.5277
▁sell	-10.5284
▁Hamilton	-10.5288
Aladdin	-10.5288
▁countless	-10.529
▁uncle	-10.5292
▁clients	-10.5294
▁prize	-10.5299
▁mass	-10.53
▁talents	-10.5306
▁Hunt	-10.5309
bl	-10.5311
tu	-10.5311
▁Gift	-10.5313
▁Idiot	-10.5313
▁Sc	-10.5314
▁profiles	-10.5316
ory	-10.5317
ada	-10.5319
▁desperately	-10.5324
▁neighbors	-10.5325
Le	-10.5326
▁Job	-10.5326
MIRA	-10.5336
pri	-10.5339
▁items	-10.5343
▁Information	-10.535
▁rooms	-10.5361
▁miles	-10.5363
▁arrival	-10.5364
▁glorious	-10.5364
▁landmark	-10.5364
▁Lauren	-10.5369
▁meant	-10.5374
▁survey	-10.5379
▁Ian	-10.5384
▁grandfather	-10.5389
▁hiding	-10.5389
▁defeat	-10.539
▁defend	-10.539
sta	-10.539
▁topic	-10.5398
▁exclusive	-10.5399
▁workers	-10.5402
▁floor	-10.5405
▁Pearl	-10.5408
▁destroyed	-10.5409
▁Francis	-10.5413
▁policies	-10.5414
▁sinister	-10.5414
▁credit	-10.5418
▁Holmes	-10.5419
▁states	-10.5435
▁disorders	-10.5441
▁Phil	-10.5444
ister	-10.5448
▁Paperback	-10.5458
▁serving	-10.5459
▁Stuart	-10.5465
▁Suzanne	-10.5468
▁miss	-10.5473
bar	-10.5475
▁Pi	-10.5486
▁objects	-10.5488
▁higher	-10.5489
▁Horse	-10.5489
▁royal	-10.5489
▁Activities	-10.549
▁exotic	-10.549
▁imaginative	-10.549
▁Editors	-10.5496
▁Storm	-10.5497
▁Sir	-10.55
▁none	-10.5512
▁creativity	-10.5516
▁exploring	-10.5516
▁notorious	-10.5516
▁population	-10.5516
▁Since	-10.5517
▁sides	-10.5521
▁Greatest	-10.5526
▁coach	-10.5532
▁Jews	-10.5536
▁jobs	-10.554
ox	-10.5543
▁$6.3	-10.5545
▁Oliver	-10.5548
▁Benjamin	-10.5554
▁considered	-10.5562
▁Fall	-10.5562
▁Pope	-10.5566
▁13	-10.5566
▁celebrity	-10.5567
▁psychologist	-10.5567
▁1969	-10.5567
World	-10.5569
▁po	-10.5571
▁Has	-10.5571
zer	-10.5573
▁traveling	-10.5576
▁mistakes	-10.5579
ou	-10.5581
▁product	-10.559
▁innocence	-10.5593
▁poverty	-10.5593
▁arts	-10.5593
▁Fa	-10.5594
▁seeks	-10.5599
▁Hal	-10.5602
▁claims	-10.5603
IS	-10.5606
▁lifelong	-10.5607
▁routine	-10.5614
▁grows	-10.5616
▁uncovers	-10.5618
Tyndale	-10.5618
▁Nixon	-10.5618
▁Supreme	-10.5618
▁fabric	-10.5618
▁pregnant	-10.5618
▁TO	-10.5623
▁Charlotte	-10.5625
lyn	-10.5628
▁Cats	-10.563
Con	-10.5633
▁assessment	-10.5633
▁newest	-10.5636
▁journal	-10.5638
▁club	-10.5642
▁glossary	-10.5644
▁pregnancy	-10.5644
lip	-10.5645
▁duty	-10.5645
pon	-10.5647
und	-10.5647
▁Control	-10.565
▁Mad	-10.5653
▁actual	-10.5656
▁fairy	-10.5657
▁publisher	-10.5659
Ace	-10.566
▁spread	-10.5663
▁treatments	-10.5667
▁communicate	-10.567
▁Ingredients	-10.567
ose	-10.5671
▁Mel	-10.5673
you	-10.5676
▁forgotten	-10.568
▁speech	-10.569
▁Che	-10.5692
▁Wal	-10.5695
▁Mom	-10.5696
▁babies	-10.5696
▁judge	-10.5696
▁Foreign	-10.57
▁Should	-10.5702
worth	-10.5703
▁Professional	-10.5703
▁Iran	-10.5707
▁welcome	-10.5708
Yearling	-10.5708
▁Boys	-10.5713
▁Dis	-10.5713
▁Finding	-10.5716
▁explanations	-10.5717
▁interview	-10.572
▁sequel	-10.5722
▁carry	-10.5722
▁photo	-10.5725
▁utterly	-10.5727
▁according	-10.5727
▁Talk	-10.5735
▁solution	-10.5747
▁favorites	-10.5747
▁furniture	-10.5748
▁saving	-10.5751
82	-10.5751
▁outdoor	-10.5751
▁Though	-10.5753
▁vividly	-10.5762
▁signs	-10.5769
▁respond	-10.577
ins	-10.5771
▁previously	-10.5772
▁Egypt	-10.5772
▁walls	-10.5773
▁Berenstain	-10.5774
▁desires	-10.5775
Atria	-10.5775
▁Maria	-10.5775
▁$7.0	-10.5777
▁Lessons	-10.5781
▁editions	-10.5786
▁Sunday	-10.5789
▁total	-10.5794
▁lovely	-10.5794
▁Shadow	-10.5795
▁threatened	-10.5796
▁produced	-10.5797
Star	-10.5801
▁Mathematics	-10.5801
Fawcett	-10.5801
▁Bird	-10.5801
▁pasta	-10.5802
fr	-10.5804
▁frightening	-10.5804
Every	-10.5806
▁500	-10.5807
ok	-10.5808
La	-10.5812
▁Fair	-10.582
AR	-10.5822
▁Trilogy	-10.5827
▁chain	-10.5827
▁Scripture	-10.5828
▁promote	-10.5829
▁thorough	-10.5838
ple	-10.5838
▁Albert	-10.584
▁report	-10.5841
▁agents	-10.5843
▁relevant	-10.5853
▁agenda	-10.5853
▁selling	-10.5855
▁Islamic	-10.5857
"")	-10.5859
▁timely	-10.586
▁moon	-10.5861
▁Evans	-10.5861
▁Being	-10.5865
ano	-10.5866
▁60	-10.5867
▁Rob	-10.5872
▁conflicts	-10.5876
▁Specific	-10.588
▁Ryan	-10.5882
ec	-10.5885
gger	-10.5887
▁Choice	-10.5888
▁Major	-10.5888
▁Phillips	-10.5889
▁Holy	-10.5896
▁select	-10.5905
cr	-10.5906
▁Survival	-10.5906
▁captivating	-10.5906
▁psychology	-10.5906
▁curious	-10.5907
▁entertainment	-10.5908
▁Foundation	-10.5908
▁labor	-10.5909
▁enormous	-10.5918
▁wear	-10.5922
▁lesson	-10.5922
▁designs	-10.5923
▁comp	-10.5928
RE	-10.5932
▁stolen	-10.5934
Washington	-10.5938
▁Div	-10.594
▁boxes	-10.5941
▁wall	-10.5944
▁Fairy	-10.5944
cho	-10.5945
▁sweeping	-10.5946
▁attitude	-10.5953
▁Made	-10.5959
▁neither	-10.596
▁priest	-10.596
▁competitive	-10.5966
fu	-10.5969
▁fame	-10.5972
▁established	-10.5973
OR	-10.5979
cut	-10.5979
apos	-10.598
▁Mal	-10.5982
▁Cor	-10.5986
▁basis	-10.5986
▁pounds	-10.5987
▁creates	-10.5988
qua	-10.5991
▁threaten	-10.5996
▁universal	-10.5998
▁sort	-10.5999
▁boat	-10.6007
▁Hot	-10.6008
▁customers	-10.6009
▁colleagues	-10.601
▁friendly	-10.6012
▁ho	-10.6012
▁appeared	-10.6012
▁champion	-10.6013
▁Page	-10.6013
▁offered	-10.6013
▁excellent	-10.6013
▁annual	-10.6013
▁Pamela	-10.6013
THE	-10.6014
▁Craig	-10.6018
▁golden	-10.6018
▁sixty	-10.6018
▁sights	-10.6018
Creative	-10.6019
▁realm	-10.6026
▁thoroughly	-10.6029
▁fourth	-10.603
▁Val	-10.6034
▁institutions	-10.6038
▁Understanding	-10.6039
Barbour	-10.6041
ob	-10.6042
▁graduate	-10.6044
▁Strategies	-10.6045
▁Dennis	-10.6045
ella	-10.6052
Del	-10.6054
bert	-10.6057
▁founder	-10.6065
▁strip	-10.6065
▁concept	-10.6067
▁outrageous	-10.6067
▁expectations	-10.6068
▁fourteen	-10.6068
▁$7.4	-10.6069
▁pop	-10.6071
▁Pick	-10.6074
▁Set	-10.6075
Love	-10.6079
uring	-10.6079
▁scientist	-10.6081
▁Us	-10.6083
▁markets	-10.6083
ski	-10.6092
▁entirely	-10.6094
▁appetizers	-10.6094
▁climate	-10.6094
▁communities	-10.6094
▁harrowing	-10.6094
Ex	-10.6095
▁observations	-10.6096
▁Place	-10.61
▁consider	-10.61
▁i	-10.6101
Two	-10.6102
▁ring	-10.6104
▁Wolf	-10.6111
ix	-10.6112
▁courses	-10.612
▁secure	-10.6121
▁$14.6	-10.6123
ola	-10.6127
▁gr	-10.6128
▁benefit	-10.6129
▁opening	-10.613
▁fe	-10.6131
▁sudden	-10.6133
ini	-10.614
▁conservative	-10.614
▁widow	-10.614
▁Patterson	-10.6148
▁heaven	-10.6148
▁Foster	-10.6149
▁Ancient	-10.6153
▁horror	-10.6157
▁Field	-10.6158
▁Ham	-10.616
▁heat	-10.6161
▁odds	-10.6161
let	-10.6165
ari	-10.6165
gy	-10.6171
▁disappearance	-10.6176
▁Its	-10.6177
▁expertise	-10.6178
hand	-10.6178
AN	-10.618
▁enter	-10.6186
▁Chi	-10.6186
▁torn	-10.6189
88	-10.62
▁essay	-10.6202
▁anxiety	-10.6203
▁Justice	-10.6204
▁Caroline	-10.6207
▁fill	-10.6208
chi	-10.6212
▁introduced	-10.6216
▁heroine	-10.6216
▁pen	-10.6216
▁crafted	-10.622
▁Flowers	-10.6227
▁beach	-10.623
▁involving	-10.623
▁link	-10.623
▁instruction	-10.6233
▁Growing	-10.6234
loss	-10.6237
▁round	-10.6237
ain	-10.6242
▁driven	-10.6242
▁allows	-10.6244
IT	-10.6257
zo	-10.6258
▁Jimmy	-10.6259
▁Pennsylvania	-10.6261
▁connections	-10.6267
eat	-10.6277
Don	-10.6282
▁sixteen	-10.6283
▁Arab	-10.6285
▁sp	-10.6285
▁1990	-10.6285
▁mood	-10.6286
▁teen	-10.6291
▁Martins	-10.6297
▁odd	-10.63
▁Latin	-10.6302
▁DE	-10.6304
▁Java	-10.6306
▁active	-10.6306
▁Off	-10.6311
▁Approach	-10.6313
ani	-10.6313
▁cure	-10.6315
University	-10.6321
▁examination	-10.6321
▁Molly	-10.6321
▁characteristics	-10.6322
▁risks	-10.6324
#	-10.633
▁Key	-10.6335
▁wind	-10.6335
kind	-10.6339
▁Holly	-10.634
▁pretty	-10.6341
▁Everyday	-10.6344
▁production	-10.6347
▁tribute	-10.635
▁instant	-10.6353
▁reduce	-10.6354
▁buying	-10.6355
pre	-10.6359
These	-10.6362
▁sign	-10.6363
▁businesses	-10.6363
▁Victorian	-10.6365
▁vocabulary	-10.6368
EN	-10.6369
▁Gregory	-10.637
▁Holiday	-10.6371
▁express	-10.6371
▁Abraham	-10.6374
▁sky	-10.6375
lf	-10.6375
▁Harcourt	-10.6375
▁Professor	-10.6375
Based	-10.6377
▁comedy	-10.6378
▁convinced	-10.6378
▁talented	-10.6381
▁weaves	-10.6385
▁cards	-10.6392
▁mu	-10.6395
▁$8.2	-10.6397
▁Brain	-10.6397
▁affairs	-10.6407
▁customer	-10.6411
▁Rivers	-10.6414
iff	-10.6417
▁multiple	-10.6417
▁passed	-10.6421
▁Steel	-10.6424
▁phenomenon	-10.6424
▁heritage	-10.6424
▁Skills	-10.6424
four	-10.6425
▁theories	-10.6425
▁Amish	-10.6426
▁examine	-10.6428
▁putting	-10.6431
▁14	-10.6433
▁trapped	-10.6434
▁attraction	-10.6441
▁bomb	-10.6443
▁kiss	-10.6446
▁records	-10.6447
TM	-10.6448
▁teams	-10.6449
▁independence	-10.6452
▁rural	-10.6452
UNK	-10.6453
▁3)	-10.6454
eight	-10.6456
lt	-10.6462
▁connect	-10.6471
▁tr	-10.6472
▁release	-10.6474
ero	-10.6477
ify	-10.6479
Cartwheel	-10.648
▁genre	-10.648
▁Did	-10.6481
▁theater	-10.649
▁appreciate	-10.6495
▁suspects	-10.6499
▁System	-10.6501
▁portraits	-10.6503
▁contest	-10.6508
▁kingdom	-10.6509
▁weekend	-10.651
▁Sand	-10.6512
▁dad	-10.6513
▁Angels	-10.6518
▁Run	-10.6519
Andrews	-10.6522
▁touching	-10.6525
▁fix	-10.6529
▁direction	-10.6529
▁Del	-10.653
▁humans	-10.653
▁rage	-10.6533
▁Marine	-10.6535
ram	-10.6536
▁explaining	-10.6537
▁Ghost	-10.6538
▁Asian	-10.6539
▁Collins	-10.654
▁additional	-10.6541
fin	-10.6546
Reilly	-10.6546
▁disappeared	-10.6548
lock	-10.6551
▁Republican	-10.6557
▁wasn	-10.6559
night	-10.6563
▁Incorporated	-10.6565
▁seductive	-10.6565
▁maintaining	-10.6566
▁Edgar	-10.6566
▁crimes	-10.6568
▁calling	-10.657
▁Philadelphia	-10.6573
David	-10.6575
);	-10.6579
▁Fi	-10.6582
▁warrior	-10.6584
▁costs	-10.6584
▁whatever	-10.6586
▁photographer	-10.6591
▁Amanda	-10.6594
▁highlights	-10.6595
▁prayers	-10.6598
nes	-10.6599
▁Rain	-10.66
▁discoveries	-10.6603
▁Systems	-10.6605
▁spot	-10.6607
▁talking	-10.6609
▁bonds	-10.6612
▁careers	-10.6612
▁Memoir	-10.6613
▁Keep	-10.6613
▁manager	-10.662
▁striking	-10.6622
▁superior	-10.6622
▁straightforward	-10.6622
▁serial	-10.6622
▁display	-10.6628
▁Market	-10.6629
▁Code	-10.6629
▁Fisher	-10.663
▁Dragon	-10.6632
Written	-10.6632
Publishers	-10.6634
▁Any	-10.6636
van	-10.6638
made	-10.6638
▁Revised	-10.6639
▁clinical	-10.6642
▁application	-10.6642
tive	-10.6642
wing	-10.6643
▁clarity	-10.6651
▁beat	-10.6653
ray	-10.6653
▁barely	-10.6658
ral	-10.6658
▁Katherine	-10.6659
▁darkness	-10.6661
▁therapy	-10.6665
▁birds	-10.6668
▁achievement	-10.6675
sha	-10.6676
▁twin	-10.6676
▁month	-10.6683
lor	-10.6685
▁Graphic	-10.6693
▁technical	-10.6693
▁received	-10.6693
▁Stra	-10.67
▁represent	-10.6703
RA	-10.6705
▁Open	-10.6706
▁joys	-10.6707
▁sons	-10.6707
sp	-10.6708
▁tables	-10.6711
▁workplace	-10.6711
▁Horn	-10.6714
▁roles	-10.6717
▁Name	-10.672
▁grave	-10.6721
▁depth	-10.6724
▁imp	-10.6727
▁Test	-10.6729
att	-10.6731
ST	-10.6733
provoking	-10.6737
▁Higgins	-10.6737
▁illuminating	-10.6737
▁Meyer	-10.6738
▁Canada	-10.6739
▁quotes	-10.6745
▁warmth	-10.6745
elle	-10.6746
packed	-10.6747
▁Ice	-10.6751
▁screen	-10.6752
▁burn	-10.6753
▁Letters	-10.6753
▁Think	-10.6759
▁Ren	-10.6765
▁Cynthia	-10.6766
mail	-10.6769
▁colors	-10.677
▁Straus	-10.6772
▁Could	-10.6773
Un	-10.6775
▁CD	-10.678
▁restore	-10.6782
!)	-10.6784
▁heartbreaking	-10.6786
▁Deep	-10.6789
▁spin	-10.679
▁Antiques	-10.6795
▁corruption	-10.6797
▁Come	-10.6797
▁Daughter	-10.68
First	-10.6807
▁occasion	-10.6817
▁Early	-10.6818
▁ambition	-10.682
▁eleven	-10.6821
▁possibilities	-10.6824
▁architecture	-10.6824
▁Navy	-10.6824
▁Kathy	-10.6824
▁Marshall	-10.6826
▁fruit	-10.6829
▁Gre	-10.6832
▁seemed	-10.6834
len	-10.6836
▁shock	-10.6841
lam	-10.6842
▁greed	-10.6842
vers	-10.6842
par	-10.6847
▁Hell	-10.6849
hy	-10.6851
▁favor	-10.6852
▁McMeel	-10.6853
▁transition	-10.6853
▁Depression	-10.6853
▁anthology	-10.6853
▁standards	-10.6853
▁Tea	-10.6864
▁slave	-10.6878
▁thirteen	-10.6879
▁perfectly	-10.688
▁Twain	-10.6882
▁station	-10.6883
▁begun	-10.6887
▁discovering	-10.6887
▁bank	-10.6894
▁pack	-10.6895
▁Silver	-10.6898
▁concerned	-10.6899
▁Theory	-10.69
friend	-10.6906
▁Cro	-10.6909
▁menu	-10.6911
▁Chronicles	-10.6914
▁Ste	-10.6918
▁divided	-10.692
▁Frederick	-10.6922
▁Team	-10.6923
▁(""	-10.6923
▁breaking	-10.6933
▁deception	-10.6941
▁possibly	-10.6941
▁enigmatic	-10.6941
▁$6.4	-10.6944
AT	-10.6945
▁bottom	-10.6947
▁Line	-10.6948
▁fields	-10.6955
ake	-10.696
Delacorte	-10.697
▁mirror	-10.697
▁Crocker	-10.697
▁exchange	-10.6971
▁enrich	-10.6971
▁compassionate	-10.6972
his	-10.6975
▁Eleanor	-10.6976
▁Does	-10.6979
▁accused	-10.6979
ert	-10.6982
now	-10.6997
▁emphasis	-10.7
▁strategic	-10.7
▁Beverly	-10.7
▁Preparation	-10.7
ei	-10.7005
list	-10.7005
long	-10.7006
lay	-10.7007
▁Blake	-10.7009
▁directions	-10.7012
white	-10.7014
fully	-10.7016
▁Ser	-10.7017
Read	-10.7021
tested	-10.7028
har	-10.7029
▁operations	-10.703
▁Dorothy	-10.703
▁cuisine	-10.703
▁Murphy	-10.703
▁Campbell	-10.703
▁Winston	-10.703
Po	-10.7034
▁Sister	-10.7038
▁Gail	-10.7038
▁Andrea	-10.7041
▁Writers	-10.7042
ON	-10.7043
▁equally	-10.7044
▁Follow	-10.7045
▁flow	-10.7045
▁Harrison	-10.7046
▁tested	-10.7051
▁$5.8	-10.7052
ew	-10.7052
▁Frances	-10.7053
▁endless	-10.7057
pin	-10.7059
▁average	-10.7059
▁object	-10.706
▁Police	-10.706
▁Doctor	-10.7061
▁ghost	-10.7064
▁mark	-10.7069
▁Creating	-10.7074
▁honesty	-10.7079
▁guard	-10.7082
matic	-10.7083
face	-10.7085
▁discuss	-10.7087
▁1950	-10.709
ene	-10.7095
▁strikes	-10.7101
▁maybe	-10.7103
▁Oxford	-10.7103
Great	-10.7104
▁Walk	-10.7105
Mo	-10.7107
▁calories	-10.7108
▁mar	-10.7116
ender	-10.7117
▁Period	-10.7119
▁emotionally	-10.7122
▁giant	-10.7123
▁princess	-10.7125
▁Sky	-10.7126
▁hotel	-10.713
▁discipline	-10.7132
wer	-10.7136
zz	-10.714
illa	-10.7141
▁Reviews	-10.7141
▁Beginning	-10.7142
▁Within	-10.7142
▁outlines	-10.7147
▁spell	-10.7153
▁Heather	-10.7154
▁movies	-10.7155
▁frequently	-10.7155
▁etc	-10.7158
ort	-10.7162
Macmillan	-10.7164
▁receive	-10.7169
▁Stein	-10.717
Workman	-10.7171
log	-10.7173
▁Louise	-10.7173
▁Gene	-10.7179
▁insurance	-10.7179
▁prime	-10.7179
▁Creek	-10.718
▁arranged	-10.7183
▁determination	-10.7184
▁Samuel	-10.7186
▁evening	-10.7188
▁Ku	-10.719
▁Resources	-10.7192
▁reaches	-10.7192
▁Sin	-10.7195
▁define	-10.72
▁diabetes	-10.721
▁Wendy	-10.721
▁illuminates	-10.7213
▁Victoria	-10.7218
ire	-10.722
▁dangers	-10.7227
▁Arm	-10.7228
▁hang	-10.7228
▁Both	-10.7229
▁cycle	-10.7229
ening	-10.7233
▁worry	-10.724
▁Chuck	-10.724
▁cultures	-10.7241
▁classics	-10.7242
ants	-10.7248
ened	-10.7252
▁cooks	-10.7256
▁Answers	-10.7266
▁Bridge	-10.7268
▁vicious	-10.727
get	-10.7271
▁Planning	-10.7271
▁horses	-10.7277
▁acts	-10.7278
bra	-10.7281
▁ending	-10.7283
▁constant	-10.7285
Just	-10.7286
▁Suddenly	-10.7288
▁purchase	-10.7291
▁stick	-10.7296
▁culinary	-10.7301
▁function	-10.7303
▁sit	-10.7305
▁stone	-10.7306
Get	-10.731
▁Born	-10.7311
▁breakfast	-10.7312
▁note	-10.7313
▁seat	-10.7315
▁eager	-10.7316
▁Glass	-10.7319
▁demonstrate	-10.7325
▁doubt	-10.7325
▁cruel	-10.733
▁afraid	-10.7331
▁status	-10.7331
▁laws	-10.7332
America	-10.7338
▁contact	-10.734
▁grade	-10.7342
▁twists	-10.7343
▁cream	-10.7348
▁regional	-10.7348
▁Until	-10.7349
level	-10.7351
lit	-10.7355
▁Coming	-10.736
▁Lin	-10.736
▁Barnes	-10.7361
▁jump	-10.7362
▁erotic	-10.7362
▁keen	-10.7362
▁Touch	-10.7362
▁elusive	-10.7362
▁actress	-10.7363
They	-10.7365
▁lo	-10.7366
▁surprises	-10.7366
▁Coast	-10.7367
mark	-10.7368
py	-10.7372
found	-10.7381
▁Presidents	-10.7383
lee	-10.7385
vel	-10.7389
fa	-10.7389
▁Ralph	-10.7393
▁Gulf	-10.7393
▁youngest	-10.7395
▁Spirituality	-10.7395
▁mentor	-10.74
▁Ball	-10.7405
▁Chief	-10.7406
▁corner	-10.7408
point	-10.7413
▁mail	-10.7414
▁prince	-10.7417
▁recognized	-10.7421
▁pursue	-10.7421
▁mad	-10.7423
loved	-10.7423
▁coffee	-10.7424
▁dictionary	-10.7424
▁repair	-10.7424
▁charismatic	-10.7424
win	-10.7424
▁activity	-10.7424
iness	-10.7424
▁assistant	-10.7425
▁2004	-10.7429
▁pure	-10.7429
ebra	-10.7435
▁speaks	-10.7436
▁Face	-10.7442
▁teenagers	-10.7442
▁Path	-10.7445
▁presentation	-10.7445
▁songs	-10.7446
its	-10.7448
▁Animal	-10.7451
▁interior	-10.7455
▁o	-10.7456
▁saved	-10.7457
▁Marketing	-10.7457
▁outstanding	-10.7458
▁crazy	-10.746
▁Jamie	-10.7463
▁Sciences	-10.7465
▁suspenseful	-10.7465
▁Comp	-10.7467
inger	-10.7469
▁cell	-10.7471
▁glass	-10.7472
▁invites	-10.7474
ular	-10.7479
▁directly	-10.7479
▁Parent	-10.7479
▁heroic	-10.7481
▁loyal	-10.7484
▁Song	-10.7485
▁Finally	-10.7486
▁Ash	-10.7486
▁sugar	-10.7487
rum	-10.7492
▁lift	-10.7493
▁editors	-10.7496
era	-10.7498
?:	-10.7499
▁plane	-10.75
▁Jason	-10.75
▁attend	-10.7502
Black	-10.7504
▁Project	-10.7508
▁Bull	-10.7509
▁Mill	-10.751
▁introduce	-10.7515
▁destined	-10.7517
▁dialogue	-10.7517
▁particularly	-10.7519
▁columnist	-10.7519
Di	-10.7521
▁dress	-10.7521
▁reporting	-10.7522
bed	-10.7526
▁Everyone	-10.7529
▁heads	-10.7534
minute	-10.7535
▁wars	-10.7539
▁asking	-10.7542
▁murders	-10.7544
▁significance	-10.7548
▁Leslie	-10.7548
▁Mitchell	-10.7548
▁heartwarming	-10.7549
▁precious	-10.7549
▁ended	-10.7549
top	-10.7553
▁Tre	-10.7554
▁driving	-10.7555
▁nations	-10.7556
cer	-10.7557
▁weapon	-10.756
▁Capo	-10.7565
▁Julian	-10.757
▁trees	-10.757
▁Mexican	-10.7579
▁intimacy	-10.7579
▁massive	-10.7581
▁Treasury	-10.7585
▁Math	-10.7586
▁Poems	-10.7587
▁Dad	-10.7596
gl	-10.7598
▁Much	-10.7603
▁teenager	-10.7604
▁Meanwhile	-10.7605
▁redemption	-10.7611
▁wilderness	-10.7611
Pro	-10.7611
▁foster	-10.7611
▁Bradley	-10.7612
▁frontier	-10.7613
▁Quinn	-10.7615
burn	-10.7617
▁models	-10.7617
ison	-10.7617
▁Sta	-10.7618
▁circle	-10.7627
ich	-10.7631
▁luck	-10.7634
▁Paula	-10.7635
▁hotels	-10.7639
ates	-10.764
▁messages	-10.764
▁Gourmet	-10.7642
▁sought	-10.7642
▁infant	-10.7643
▁Marilyn	-10.7643
▁rising	-10.7643
▁walking	-10.7645
▁Hillary	-10.7646
▁seventy	-10.7646
▁Q	-10.7647
ese	-10.7651
▁Past	-10.7652
▁relentless	-10.7658
ddle	-10.7664
CH	-10.7668
ctor	-10.7671
▁Afghanistan	-10.7674
▁physician	-10.7674
▁construction	-10.7676
▁Duke	-10.7677
▁Tu	-10.7678
▁Global	-10.768
▁forest	-10.7683
rant	-10.7683
▁Danielle	-10.7683
▁sensitive	-10.7684
▁crafts	-10.7687
▁equal	-10.7688
key	-10.769
▁miracle	-10.7691
uk	-10.7698
▁aunt	-10.77
▁Tri	-10.77
▁gardens	-10.7705
imp	-10.7708
▁$7.1	-10.7709
▁bridge	-10.7713
▁recovery	-10.7714
▁Penguin	-10.7715
▁Devil	-10.7718
▁Rabbit	-10.7719
▁accurate	-10.7722
Includes	-10.7726
Good	-10.7726
▁except	-10.7727
ush	-10.7729
ington	-10.7732
▁discussions	-10.7734
▁Earl	-10.7736
▁mutual	-10.7738
▁indeed	-10.7739
Me	-10.7739
▁Sean	-10.774
▁Donna	-10.7746
▁blow	-10.7747
▁Lamb	-10.7748
berry	-10.7749
▁adopted	-10.7751
▁Movie	-10.7751
▁Join	-10.7754
ending	-10.7758
▁educational	-10.7761
▁reflects	-10.7762
woman	-10.7764
▁paint	-10.7766
▁Student	-10.7769
▁Judaism	-10.777
▁Harvey	-10.777
▁agency	-10.777
▁Salad	-10.7771
▁Josh	-10.7772
▁term	-10.7773
▁comfortable	-10.7774
▁combine	-10.7774
▁Freeman	-10.7778
star	-10.7779
▁Educational	-10.7785
▁Imp	-10.7785
ea	-10.7786
▁strike	-10.7789
▁appearance	-10.7791
#1	-10.7797
▁document	-10.7799
▁Behavior	-10.7802
▁Sociology	-10.7802
Multnomah	-10.7802
▁tactics	-10.7802
▁encouragement	-10.7803
▁courageous	-10.7805
▁twist	-10.7811
▁Ad	-10.7811
Up	-10.7815
▁Peterson	-10.7818
▁Castle	-10.7818
▁soft	-10.782
▁balanced	-10.782
▁meditation	-10.7822
▁stake	-10.7824
▁liberal	-10.7828
10	-10.7833
▁Basic	-10.7833
▁novice	-10.7834
teen	-10.7834
▁Memoirs	-10.7844
▁$1	-10.7846
▁publishing	-10.7847
▁drop	-10.7848
▁Liz	-10.7852
▁Pal	-10.7852
▁Min	-10.7853
▁al	-10.7859
▁Meals	-10.786
▁described	-10.7863
▁essence	-10.7866
▁interactive	-10.7867
▁minister	-10.7867
▁gay	-10.7868
▁Diabetes	-10.7869
▁Corp	-10.787
▁herbs	-10.7874
▁song	-10.7875
cious	-10.7885
▁conclusion	-10.7888
▁Bal	-10.7891
▁Com	-10.7893
37	-10.7894
▁Experience	-10.7895
▁casual	-10.7898
▁writings	-10.7902
▁bloody	-10.7904
▁finish	-10.7904
▁deepest	-10.7906
iz	-10.7913
▁meaningful	-10.7916
which	-10.7921
▁believed	-10.7923
▁mountains	-10.7929
▁suit	-10.7929
▁Heritage	-10.7931
▁biological	-10.7931
▁solving	-10.7935
▁confident	-10.7936
▁hints	-10.7936
▁amid	-10.7943
▁survived	-10.7946
▁Main	-10.7949
▁Mid	-10.795
▁Ya	-10.7951
cat	-10.7952
▁manner	-10.7954
▁Bank	-10.7961
▁Department	-10.7963
▁Mississippi	-10.7963
▁math	-10.7966
▁Bennett	-10.7967
▁Thompson	-10.7968
scenes	-10.7969
earth	-10.7969
▁realities	-10.797
▁perform	-10.7971
▁Bobby	-10.7974
just	-10.7974
▁mention	-10.7975
▁Collections	-10.7975
▁Between	-10.7977
▁exquisite	-10.7981
▁threats	-10.7984
▁Forever	-10.7984
▁breed	-10.7993
igan	-10.7994
rac	-10.8001
▁conventional	-10.8004
▁cookies	-10.8005
▁1960	-10.8006
▁breaks	-10.8015
▁chef	-10.8022
▁presidents	-10.8027
▁pocket	-10.8029
▁qualities	-10.8029
▁anywhere	-10.8032
Clarkson	-10.8034
▁trace	-10.8036
▁roll	-10.8037
▁fell	-10.8038
▁Woods	-10.804
▁ties	-10.8045
▁settle	-10.8045
▁conversation	-10.8049
▁distant	-10.8062
▁subtle	-10.8062
▁Ja	-10.8064
▁Camp	-10.8065
▁Network	-10.8069
Or	-10.8071
ung	-10.8076
▁collected	-10.8076
▁factors	-10.8077
lli	-10.8082
▁Hen	-10.8082
▁findings	-10.8083
Ten	-10.8086
Who	-10.8094
▁Llc	-10.8095
▁Architecture	-10.8095
▁Bean	-10.8095
▁perilous	-10.8095
Mariner	-10.8096
▁Tyler	-10.8096
▁Aids	-10.8097
▁hour	-10.8097
▁darkest	-10.8104
▁firsthand	-10.8105
▁fallen	-10.8108
▁noted	-10.8112
▁passions	-10.8116
▁Painting	-10.8116
▁twisted	-10.8117
▁marked	-10.8119
▁assassin	-10.8123
▁Motivational	-10.8128
▁diagrams	-10.8128
▁improving	-10.8128
▁reign	-10.8128
▁Lily	-10.8129
▁chase	-10.813
▁Him	-10.813
▁elderly	-10.8133
▁user	-10.8136
ros	-10.8138
than	-10.8139
will	-10.8143
▁thrill	-10.8147
ks	-10.815
▁appealing	-10.8153
▁Kar	-10.8157
▁drink	-10.816
▁reports	-10.816
▁cheese	-10.8161
▁wicked	-10.8161
Back	-10.8163
▁Chef	-10.8163
▁critics	-10.8164
▁trans	-10.817
▁h	-10.8171
▁Bread	-10.8174
▁scholar	-10.8175
▁onto	-10.8179
▁Chronicle	-10.818
▁totally	-10.8182
▁unfolds	-10.8184
▁rain	-10.8185
▁attitudes	-10.8192
▁nursing	-10.8194
▁Arnold	-10.8194
▁Materials	-10.8195
▁$6.6	-10.8198
▁hired	-10.8201
ank	-10.8203
▁Less	-10.8206
Harmony	-10.8208
▁engaged	-10.8209
▁informed	-10.821
▁Par	-10.8212
▁haven	-10.8219
▁Carr	-10.822
▁collapse	-10.8228
▁navigate	-10.8228
▁backdrop	-10.8229
▁saying	-10.8231
▁highlight	-10.8243
▁Angela	-10.825
foot	-10.8254
▁description	-10.826
▁disorder	-10.826
ash	-10.8261
Scholastic	-10.8261
▁Corporation	-10.8261
▁invasion	-10.8261
▁worship	-10.8261
▁Isabel	-10.8267
▁terrorists	-10.8269
God	-10.8271
▁Pan	-10.8275
▁Baltimore	-10.8276
▁Present	-10.8277
---	-10.8287
▁peaceful	-10.8288
Barron	-10.8288
▁shift	-10.829
ora	-10.8291
▁plague	-10.8295
▁forgiveness	-10.8296
single	-10.8298
▁demand	-10.8299
▁houses	-10.8299
▁n	-10.8305
▁Remember	-10.8305
yl	-10.8306
ook	-10.8307
IC	-10.8307
▁Maine	-10.831
bel	-10.8312
▁constantly	-10.8312
▁holidays	-10.832
▁encourages	-10.832
▁pot	-10.8327
▁focusing	-10.8329
▁300	-10.8329
▁tension	-10.8329
▁travelers	-10.833
▁Sto	-10.8331
▁Las	-10.8332
▁Scottish	-10.8333
▁$12.99	-10.8336
cie	-10.8337
▁Portrait	-10.8338
▁Around	-10.8341
▁Pen	-10.8343
▁protection	-10.8344
▁revelations	-10.8347
▁Yorker	-10.8348
▁musical	-10.8352
ES	-10.8354
▁Mars	-10.8355
ink	-10.8356
▁dies	-10.8362
▁glory	-10.8363
▁intricate	-10.8363
tell	-10.8363
saving	-10.8368
▁Gardner	-10.837
▁wishes	-10.8373
▁accomplished	-10.8375
▁disappears	-10.8378
▁Head	-10.8379
oon	-10.8384
▁Nothing	-10.8385
Booklist	-10.839
▁seventeen	-10.8394
▁Medal	-10.8397
▁recommendations	-10.8397
▁pattern	-10.8398
▁investigator	-10.8399
Each	-10.8399
▁laughter	-10.8399
▁mansion	-10.8402
craft	-10.8402
▁Act	-10.8404
zi	-10.8406
▁processes	-10.8406
▁Promise	-10.8406
run	-10.8414
▁string	-10.8416
▁wives	-10.8418
▁su	-10.8418
▁jokes	-10.842
▁developments	-10.8426
load	-10.8429
▁Meg	-10.8429
▁DK	-10.843
▁Keith	-10.8431
▁ministry	-10.8431
Harpercollins	-10.8431
▁pastor	-10.8431
▁hate	-10.8435
▁profoundly	-10.8435
▁gardening	-10.8436
▁$7.3	-10.8437
▁Wallace	-10.8439
▁Bor	-10.8441
▁Mis	-10.8443
▁1968",	-10.8446
hold	-10.8446
▁profit	-10.8447
▁selections	-10.8447
aged	-10.8447
Can	-10.8448
▁films	-10.845
▁woods	-10.8451
▁Works	-10.8457
▁emerges	-10.8457
▁connected	-10.8458
▁24	-10.8462
▁9/11	-10.8465
▁trivia	-10.8465
▁earned	-10.8466
▁diary	-10.8467
▁holding	-10.8467
▁Bre	-10.8468
▁50,000	-10.8468
▁breads	-10.8469
ale	-10.847
▁Bond	-10.8471
▁Amelia	-10.8474
▁hunting	-10.8478
▁agrees	-10.8479
En	-10.8481
▁Ring	-10.8481
▁authorities	-10.8481
▁ruin	-10.8482
ju	-10.8484
▁users	-10.8486
six	-10.849
sey	-10.849
▁engage	-10.8491
ware	-10.8493
Follow	-10.8493
▁Spy	-10.8493
Harry	-10.8495
understand	-10.8495
Out	-10.8498
▁primary	-10.85
▁Jenny	-10.8503
▁sick	-10.8503
▁overwhelming	-10.8505
master	-10.8508
▁Neil	-10.8513
Home	-10.8515
Is	-10.8523
▁increasing	-10.8527
▁Harper	-10.8528
ara	-10.8529
Paul	-10.8529
▁usual	-10.853
bit	-10.853
▁ease	-10.853
▁eighteen	-10.8531
▁ha	-10.8531
▁venture	-10.8534
▁urgent	-10.8534
▁fictional	-10.8535
▁finance	-10.8539
▁border	-10.854
▁healthier	-10.8542
▁Successful	-10.8545
mond	-10.8551
ches	-10.8555
▁fail	-10.8557
▁Eye	-10.8562
pr	-10.8565
▁Fran	-10.8567
▁Sisters	-10.8568
▁describing	-10.8569
▁Morning	-10.857
▁homicide	-10.8571
▁designer	-10.8572
▁rival	-10.8573
▁Muslim	-10.8575
5,000	-10.8582
▁Bears	-10.8582
Over	-10.859
▁slowly	-10.8593
hearted	-10.8593
▁headlines	-10.8598
▁turbulent	-10.8603
▁charged	-10.8605
Parragon	-10.8605
▁Roth	-10.8609
aries	-10.861
▁pilot	-10.861
▁Environmental	-10.8614
▁guests	-10.8615
▁superb	-10.8616
▁Andy	-10.862
nut	-10.862
▁chart	-10.8623
▁Fresh	-10.8629
▁park	-10.863
▁Royal	-10.8634
▁implement	-10.8635
▁vengeance	-10.8638
▁histories	-10.8638
▁Hitler	-10.8639
▁kick	-10.8639
▁origin	-10.864
▁dreamed	-10.8642
Farrar	-10.8643
▁explanation	-10.8646
▁Allan	-10.8647
print	-10.8648
virtually	-10.8649
▁Mu	-10.8654
▁required	-10.8654
▁Cap	-10.8655
ya	-10.8656
▁phrases	-10.8658
gie	-10.8658
▁warning	-10.8665
tta	-10.8666
▁Witch	-10.8666
ura	-10.867
▁similar	-10.8673
▁despair	-10.8673
▁electronic	-10.8673
▁angry	-10.8673
▁operation	-10.8674
▁clothes	-10.8675
▁intended	-10.8677
ography	-10.868
▁van	-10.8686
▁Cake	-10.8689
▁pleasures	-10.8692
▁dish	-10.8698
▁sends	-10.8701
▁Atlas	-10.8702
▁armed	-10.8708
▁vegetarian	-10.8708
▁conquer	-10.8708
▁diversity	-10.8708
mate	-10.8709
▁Cancer	-10.8711
▁pan	-10.8713
▁experiment	-10.8713
▁feeding	-10.8714
where	-10.872
pro	-10.8723
▁Ty	-10.8724
▁Jackie	-10.8727
▁Guy	-10.8728
▁Fear	-10.8729
▁adapt	-10.8731
acy	-10.8733
▁Print	-10.8734
Day	-10.8735
before	-10.8739
▁river	-10.8741
▁Caribbean	-10.8743
▁Film	-10.8743
▁Stern	-10.8749
lav	-10.875
▁Dor	-10.8751
▁allowed	-10.8752
▁Harbor	-10.8752
▁Shaw	-10.8753
▁arrived	-10.8759
▁extreme	-10.8763
▁2003	-10.8765
▁Turn	-10.8765
▁souls	-10.8766
▁Despite	-10.8767
▁diseases	-10.8767
▁seeing	-10.8771
English	-10.8774
▁ethnic	-10.8777
▁mine	-10.8778
▁breast	-10.8779
▁Anthologies	-10.8779
▁Issues	-10.8779
▁silence	-10.8779
▁Laurie	-10.8779
▁gender	-10.8779
▁Dickens	-10.878
▁Brothers	-10.8781
▁shadows	-10.8782
▁Facts	-10.8783
▁Pasta	-10.8783
▁forbidden	-10.8783
▁Sales	-10.8789
ica	-10.8789
▁demons	-10.8795
▁Katie	-10.8797
▁Nazi	-10.8799
ess	-10.88
▁Wars	-10.8809
▁receives	-10.8809
own	-10.881
▁sensual	-10.8812
▁Sk	-10.8814
▁Ministry	-10.8814
▁thrive	-10.8814
▁Intl	-10.8815
▁Generation	-10.8815
▁hoping	-10.8815
▁dining	-10.8815
▁Passion	-10.8817
▁Ru	-10.8817
▁Ti	-10.8822
▁Loss	-10.8823
▁Bed	-10.8825
▁serves	-10.8827
▁combined	-10.883
▁$15.4	-10.8833
▁Ali	-10.8835
ati	-10.8838
▁Pu	-10.8839
▁Hat	-10.8844
▁base	-10.8844
People	-10.8846
▁deals	-10.885
Not	-10.885
▁Nor	-10.8851
▁producer	-10.8852
▁100,000	-10.8853
Drawing	-10.8854
▁hunger	-10.8854
ez	-10.8855
▁theme	-10.8856
▁dry	-10.8856
▁abilities	-10.8857
itz	-10.8858
▁bears	-10.886
▁merely	-10.8861
▁1967",	-10.8863
▁contributions	-10.8869
▁hasn	-10.8878
▁castle	-10.8879
▁III	-10.888
▁Farm	-10.8883
gr	-10.8885
▁Eating	-10.8885
▁emerging	-10.8886
▁sacred	-10.8886
fish	-10.8886
▁scope	-10.8886
▁dramatically	-10.8888
rated	-10.8893
eyed	-10.8895
▁stronger	-10.8897
▁scheme	-10.89
▁passage	-10.8901
▁dozen	-10.8903
▁camera	-10.8905
▁supposed	-10.8906
▁Uncle	-10.8907
▁fatal	-10.891
seller	-10.892
▁harm	-10.8921
▁implications	-10.8922
▁Christine	-10.8927
away	-10.8928
▁ranch	-10.8932
▁racial	-10.8936
ston	-10.8939
hop	-10.8946
mat	-10.8946
tech	-10.895
yer	-10.895
Filled	-10.8954
▁technologies	-10.8957
▁Jersey	-10.8957
▁Annual	-10.8959
▁Stress	-10.896
▁officials	-10.896
▁Owner	-10.8962
▁flower	-10.8963
▁Reich	-10.8964
▁obstacles	-10.8974
▁legends	-10.8974
▁Mag	-10.8975
▁FOR	-10.8977
▁Wells	-10.8979
▁Economic	-10.898
▁Courage	-10.8982
▁interpret	-10.8986
▁Harriet	-10.9001
▁Jessica	-10.9001
▁Amazing	-10.9001
▁devotional	-10.9004
▁escaped	-10.9006
▁hometown	-10.9007
▁technique	-10.901
▁investing	-10.9013
▁immediate	-10.9014
▁package	-10.9016
▁Them	-10.9017
▁Brad	-10.9017
▁longing	-10.9018
▁prices	-10.9019
▁Save	-10.9022
▁afford	-10.9028
▁opposite	-10.903
▁possibility	-10.903
Clarion	-10.903
▁Programming	-10.903
▁foremost	-10.903
▁Hopkins	-10.903
▁lust	-10.9031
▁Revolutionary	-10.9032
▁$10.	-10.9034
▁Anita	-10.9034
▁Cultural	-10.9035
▁Ve	-10.9037
▁Palmer	-10.9037
▁scores	-10.9042
▁closest	-10.9043
▁gathered	-10.9045
▁Jacob	-10.9045
▁Stay	-10.9047
▁Which	-10.9047
▁preserve	-10.9052
▁Really	-10.9053
▁faster	-10.9055
zar	-10.9057
▁Len	-10.9059
▁Colin	-10.9059
▁featured	-10.9061
bound	-10.9063
▁Bol	-10.9063
Children	-10.9064
Warner	-10.9065
▁territory	-10.9066
▁aftermath	-10.9066
▁se	-10.9066
▁pe	-10.9066
▁Spencer	-10.9067
▁Churchill	-10.9067
▁Alaska	-10.9068
Are	-10.9068
▁Town	-10.9069
▁nice	-10.9069
▁assassination	-10.907
set	-10.9084
▁Ni	-10.9084
▁released	-10.9085
Los	-10.9087
oli	-10.9087
▁critically	-10.9088
▁Into	-10.909
▁enjoying	-10.909
▁Cl	-10.9091
▁feed	-10.9099
▁Constitution	-10.9101
▁Outdoor	-10.9103
▁lower	-10.9103
▁reliable	-10.9103
▁Tan	-10.9104
▁heir	-10.9105
▁Edge	-10.9105
▁brutally	-10.9106
Once	-10.9107
▁probably	-10.9108
▁deaths	-10.9109
▁Wayne	-10.911
bury	-10.911
▁Luke	-10.9111
▁Berg	-10.9112
play	-10.9113
▁opera	-10.9114
▁perennial	-10.9115
▁Against	-10.9116
▁sand	-10.9118
ls	-10.9121
▁entertain	-10.9122
▁alter	-10.9122
▁Hardy	-10.9123
▁wonderfully	-10.9123
▁regular	-10.9124
▁reluctant	-10.9124
▁CA	-10.9124
▁Knight	-10.9125
Cliffs	-10.9126
▁Frommer	-10.9132
graph	-10.9132
Her	-10.9132
▁lunch	-10.9133
▁motivation	-10.9133
North	-10.9137
most	-10.9138
▁grammar	-10.9139
▁invitation	-10.9139
▁technological	-10.9139
▁Austen	-10.9139
eb	-10.9139
▁kidnapped	-10.9139
▁Berlin	-10.914
▁discussing	-10.9141
▁CO	-10.9144
ome	-10.9144
▁somehow	-10.9146
▁Spring	-10.915
▁tie	-10.9151
▁Brooklyn	-10.9152
▁Lang	-10.9153
▁clock	-10.9155
▁obsessed	-10.9159
▁quotations	-10.9161
▁speaking	-10.9163
▁Hay	-10.9164
oul	-10.9166
▁Cape	-10.9168
▁waters	-10.9169
▁Taking	-10.917
▁Orleans	-10.9176
▁lethal	-10.9177
Examines	-10.9177
▁property	-10.9178
▁Burke	-10.9179
▁tall	-10.9179
▁Featuring	-10.9185
▁confrontation	-10.9186
equ	-10.9189
▁textbook	-10.9192
▁Left	-10.9197
▁Ram	-10.92
▁hunter	-10.9203
ification	-10.9204
▁Bright	-10.9205
▁During	-10.9208
Gallery	-10.9211
▁Vegetarian	-10.9213
▁reclaim	-10.9213
▁Cho	-10.9214
▁papers	-10.9215
▁cash	-10.9216
▁Delicious	-10.9218
▁Nursing	-10.9219
▁Order	-10.9221
▁Rh	-10.9223
▁flying	-10.9224
lum	-10.9224
▁Mer	-10.9225
▁Kit	-10.9225
och	-10.9225
▁Hol	-10.9227
▁fishing	-10.9228
▁Nate	-10.9228
Li	-10.9228
cap	-10.9229
▁Sleep	-10.9231
power	-10.9231
Alpha	-10.9233
▁Steps	-10.9237
ups	-10.9244
▁Entertainment	-10.9248
▁Intelligence	-10.925
▁puppy	-10.925
▁Darwin	-10.925
▁loose	-10.925
▁bedroom	-10.9251
▁McK	-10.9251
▁Michelle	-10.9251
▁25,000	-10.9252
▁accompany	-10.9256
▁treats	-10.9257
▁spirited	-10.9257
▁Memory	-10.9258
▁savvy	-10.9258
▁nu	-10.9261
▁faithful	-10.9263
▁Leo	-10.9263
bin	-10.9266
▁$2	-10.9268
▁Season	-10.9274
▁Lion	-10.9274
rus	-10.9275
▁Diets	-10.9281
▁Throughout	-10.9282
sses	-10.9283
ole	-10.9286
▁Picture	-10.9286
▁Oscar	-10.9287
▁residents	-10.9288
▁retreat	-10.9288
ters	-10.9289
▁Herbert	-10.929
bon	-10.9293
▁Curious	-10.9297
igh	-10.9298
cal	-10.9299
▁Trust	-10.9299
▁Would	-10.93
being	-10.9302
▁crowd	-10.9302
pers	-10.9305
▁cake	-10.9308
▁conduct	-10.9309
▁expand	-10.9309
▁achieving	-10.9311
▁journalists	-10.9314
▁unlike	-10.9315
table	-10.9317
▁earn	-10.9318
rm	-10.9323
▁Thrift	-10.9324
▁bargain	-10.9324
▁suspicious	-10.9324
▁Collectibles	-10.9324
▁Murray	-10.9325
▁Writer	-10.9325
▁happening	-10.9326
▁affordable	-10.9326
vert	-10.933
▁achievements	-10.9335
▁sounds	-10.9346
▁guest	-10.9351
▁clue	-10.9351
▁Gri	-10.9353
Your	-10.9353
▁creator	-10.9356
come	-10.9357
after	-10.936
Meredith	-10.9362
▁integrity	-10.9362
▁jungle	-10.9362
▁Legacy	-10.9362
▁Scotland	-10.9362
▁framework	-10.9362
▁Fo	-10.9364
▁glamorous	-10.9366
ander	-10.9367
▁ca	-10.9368
dia	-10.9369
▁Dance	-10.9371
▁typical	-10.9372
▁supplements	-10.9372
▁artistic	-10.9374
bble	-10.9383
▁consultant	-10.9389
▁corporations	-10.9391
▁Select	-10.9395
sized	-10.9396
esteem	-10.9399
▁false	-10.9399
▁isolated	-10.9399
▁resort	-10.94
▁Valentine	-10.94
▁triumphs	-10.9401
▁researched	-10.9402
▁Table	-10.9403
▁Paper	-10.9405
▁Sophie	-10.9406
11	-10.9408
▁literally	-10.941
▁incorporate	-10.941
98	-10.9422
▁longtime	-10.9423
Car	-10.9428
▁supplement	-10.9428
▁remind	-10.9433
▁length	-10.9434
▁managed	-10.9437
▁Bailey	-10.9437
▁anniversary	-10.9437
▁Melissa	-10.9437
▁eternal	-10.9437
▁Birds	-10.9438
▁Perry	-10.9441
▁Meet	-10.9444
▁joined	-10.9446
eth	-10.945
▁Working	-10.9452
▁Ber	-10.9454
▁mini	-10.9455
▁oldest	-10.9458
▁ingenious	-10.9459
pur	-10.946
▁Kid	-10.9462
▁exist	-10.9462
ied	-10.9471
▁Todd	-10.9474
▁southern	-10.9475
▁basketball	-10.9475
▁bullet	-10.9476
▁conviction	-10.9478
▁Cathy	-10.9478
▁sail	-10.9481
▁sexuality	-10.9482
▁1965",	-10.9484
▁mess	-10.9484
▁recommend	-10.9491
▁expose	-10.9492
▁Greene	-10.9493
▁illustrates	-10.9497
▁gathering	-10.9497
▁Die	-10.95
▁App	-10.95
▁Wil	-10.9501
sco	-10.9505
▁graphic	-10.9509
▁staying	-10.9512
this	-10.9512
▁adolescent	-10.9513
▁tumultuous	-10.9513
Pantheon	-10.9513
▁Trouble	-10.9515
▁2008	-10.9516
▁Minutes	-10.9518
vy	-10.9519
▁searches	-10.952
▁transforming	-10.9523
▁Instruction	-10.9529
▁Foods	-10.9529
▁cakes	-10.9529
▁hungry	-10.953
ien	-10.9533
▁Careers	-10.9535
▁linked	-10.9543
▁scale	-10.9548
▁evocative	-10.9551
▁Theodore	-10.9551
▁hottest	-10.9552
▁addiction	-10.9554
▁entry	-10.9556
▁organizational	-10.9557
▁cholesterol	-10.9558
▁block	-10.9559
▁250	-10.956
▁enjoyable	-10.956
▁m	-10.956
▁Lane	-10.9561
▁suffer	-10.9564
▁Microsoft	-10.9565
▁concern	-10.9568
▁Gro	-10.957
▁Editor	-10.9571
▁shy	-10.9572
wi	-10.9574
▁Alfred	-10.9574
▁puzzles	-10.9576
Shows	-10.9576
▁actor	-10.9579
▁refuses	-10.9582
view	-10.9584
▁medieval	-10.959
▁abroad	-10.959
▁psychic	-10.959
▁Duncan	-10.959
▁Nina	-10.9596
▁1966",	-10.9601
nan	-10.9602
▁Managing	-10.9604
ius	-10.9607
ico	-10.9607
▁$13.1	-10.9608
▁ignore	-10.9613
▁Ellis	-10.9625
▁Kat	-10.9626
▁amateur	-10.9628
Crescent	-10.9629
Since	-10.963
Word	-10.963
▁profile	-10.9634
▁Council	-10.9635
▁Noah	-10.9635
▁Newbery	-10.9641
12	-10.9646
▁coping	-10.9649
ji	-10.9649
▁classes	-10.9655
▁files	-10.9658
▁Running	-10.9661
▁consumer	-10.9666
▁commercial	-10.9667
▁warfare	-10.9667
▁Giroux	-10.9667
▁Debbie	-10.9667
▁Raymond	-10.9667
▁Fourth	-10.9674
▁resolve	-10.9674
▁Buck	-10.9675
▁Vo	-10.9676
▁fantastic	-10.9676
▁exposes	-10.9677
▁y	-10.9678
ute	-10.9679
path	-10.9683
▁miracles	-10.9685
▁exceptional	-10.9692
▁exact	-10.9693
▁limits	-10.9693
non	-10.9694
▁Abrams	-10.9697
▁Bl	-10.97
pen	-10.9702
▁threatening	-10.9705
▁diagnosis	-10.9705
▁Ladies	-10.9705
▁Danny	-10.9708
three	-10.9711
▁texts	-10.9716
▁hip	-10.9718
▁predict	-10.972
▁orphan	-10.9721
ency	-10.9723
▁lands	-10.9724
13	-10.9725
phy	-10.9728
▁critic	-10.9731
dr	-10.9738
▁Cy	-10.9741
▁billion	-10.9743
▁intervention	-10.9744
▁negative	-10.9744
Gramercy	-10.9744
▁Horror	-10.9744
▁Sheila	-10.9744
▁clash	-10.9745
▁Kingdom	-10.9745
▁Cohen	-10.9747
▁bus	-10.9747
▁Direct	-10.9749
▁Digital	-10.975
▁Quilts	-10.9752
▁Speed	-10.9753
▁enchanting	-10.9753
▁trials	-10.9756
▁affection	-10.9757
ified	-10.9758
een	-10.9762
dis	-10.9762
18	-10.9763
pan	-10.9769
▁Fra	-10.9769
▁Tess	-10.9779
▁historians	-10.9782
▁Massachusetts	-10.9783
▁gossip	-10.9783
▁Saddam	-10.9783
▁definitions	-10.9784
▁smile	-10.9784
school	-10.9785
Everything	-10.9786
Complete	-10.9787
▁Hugh	-10.9787
▁ethical	-10.9789
building	-10.9791
▁tear	-10.9792
▁vows	-10.9792
cake	-10.9794
rig	-10.9797
▁Institution	-10.9804
▁involve	-10.9806
▁require	-10.9809
▁Tro	-10.9811
test	-10.9811
▁Ju	-10.9815
ians	-10.9817
▁verse	-10.9819
▁Ly	-10.982
Peter	-10.9822
anne	-10.9823
▁appreciation	-10.9823
▁Happiness	-10.9823
▁grasp	-10.9823
▁boost	-10.9823
▁standing	-10.9823
▁Trek	-10.9825
▁Official	-10.983
▁climb	-10.9831
▁maintenance	-10.9831
▁Selection	-10.9832
▁added	-10.9835
▁Return	-10.9836
▁k	-10.9844
▁rewarding	-10.9845
▁cons	-10.9848
▁deepen	-10.9848
they	-10.9851
▁commander	-10.9857
▁du	-10.9857
gin	-10.986
▁AIDS	-10.9862
▁flavors	-10.9862
▁Sauce	-10.9862
▁lush	-10.9862
▁calm	-10.9862
▁assault	-10.9862
▁brink	-10.9862
▁strengths	-10.9862
▁pride	-10.9862
gel	-10.9863
▁$3	-10.9863
▁throw	-10.9866
▁height	-10.9866
▁Exercise	-10.9867
lies	-10.9869
▁rebel	-10.9869
▁Mason	-10.9869
▁mistress	-10.9873
each	-10.9874
ease	-10.9874
▁Clare	-10.9874
ily	-10.9875
▁Topic	-10.988
▁biographical	-10.9885
▁infamous	-10.9886
▁sad	-10.9888
▁Clarke	-10.9893
▁Advent	-10.9893
▁Mul	-10.9899
▁formula	-10.9901
▁executives	-10.9901
▁encouraging	-10.9901
▁Montana	-10.9902
▁fulfillment	-10.9903
▁shake	-10.9903
▁McG	-10.9903
▁Wedding	-10.9903
▁wave	-10.9903
▁angel	-10.9904
eo	-10.9905
lands	-10.9907
Pre	-10.9917
▁paints	-10.992
▁customs	-10.992
▁statistics	-10.9921
minded	-10.9926
▁Globe	-10.9933
▁Gerald	-10.994
▁silent	-10.9941
▁forensic	-10.9941
▁premier	-10.9941
▁boundaries	-10.9942
dent	-10.9942
▁distinctive	-10.9942
▁museum	-10.9943
Set	-10.995
▁Plum	-10.9951
▁cherished	-10.9953
uri	-10.9959
▁defined	-10.996
▁Edwards	-10.9961
▁trick	-10.9964
IL	-10.9965
▁printed	-10.9965
Al	-10.9966
rn	-10.9967
▁internationally	-10.9967
▁Sloan	-10.9968
awn	-10.9969
▁moms	-10.9969
has	-10.9971
▁treasures	-10.9972
▁procedures	-10.9974
▁ghosts	-10.9979
▁empty	-10.9981
▁Entertaining	-10.9981
cept	-10.9983
▁Truman	-10.9984
what	-10.9985
▁Pol	-10.9985
▁Cam	-10.9985
▁Drew	-10.9987
ula	-10.9997
Ho	-10.9999
▁shadowy	-10.9999
▁AP	-11.0006
Look	-11.0009
▁masterful	-11.0013
▁NEW	-11.0018
▁sc	-11.0019
Best	-11.0019
▁friendships	-11.0021
▁Anthology	-11.0021
▁Reynolds	-11.0021
▁spellbinding	-11.0021
▁voyage	-11.0021
▁NC	-11.0022
▁Tra	-11.0023
▁argument	-11.0024
▁Beck	-11.0027
""--	-11.0028
▁Olivia	-11.0029
▁Opera	-11.003
▁Reed	-11.0031
▁Topics	-11.0031
....","	-11.0035
30	-11.0038
tar	-11.0039
▁movements	-11.004
▁Class	-11.0046
▁Bel	-11.0048
▁bath	-11.0048
▁grip	-11.005
▁Roll	-11.0053
▁Republic	-11.0059
▁commit	-11.0059
▁perspectives	-11.0061
▁Ethics	-11.0061
▁identifies	-11.0061
▁trilogy	-11.0061
▁Bishop	-11.0061
▁soccer	-11.0061
▁correspondent	-11.0062
▁SC	-11.0064
▁Marcus	-11.0065
ivity	-11.0065
▁placed	-11.0065
▁ethics	-11.0068
▁pig	-11.007
▁realized	-11.0073
▁quilt	-11.0075
Learn	-11.0079
je	-11.0086
▁enters	-11.009
▁Doug	-11.0096
▁rediscover	-11.0098
▁decline	-11.0101
▁understood	-11.0101
▁blame	-11.0102
▁mouth	-11.0103
▁Twenty	-11.0104
▁focused	-11.0106
Har	-11.0106
▁siblings	-11.0107
▁bigger	-11.0108
▁swept	-11.011
▁Lori	-11.0117
▁Lib	-11.0118
▁Johnny	-11.0119
Fireside	-11.0123
▁truck	-11.0123
▁Computer	-11.0124
▁Mack	-11.0128
UR	-11.013
Use	-11.0132
lica	-11.0136
▁sin	-11.0139
▁MD	-11.0141
Atheneum	-11.0142
▁Paranormal	-11.0142
▁Armstrong	-11.0142
▁programming	-11.0142
▁Inspiration	-11.0143
▁Fortune	-11.0143
▁uniquely	-11.0146
▁handling	-11.015
put	-11.0151
US	-11.0152
20	-11.0155
▁Cure	-11.0157
▁distance	-11.0158
tail	-11.0161
dom	-11.0162
nch	-11.0164
▁Taste	-11.0167
▁fulfill	-11.0169
▁Watson	-11.017
▁arrive	-11.0172
person	-11.0174
cover	-11.0175
▁touched	-11.0176
bre	-11.018
▁copy	-11.0181
▁Confederate	-11.0183
▁Transportation	-11.0183
oriented	-11.0183
▁generous	-11.0183
▁varied	-11.0183
San	-11.0183
▁suburban	-11.0184
▁bio	-11.0185
▁specifically	-11.0186
▁Stock	-11.0186
▁genetic	-11.019
▁secretly	-11.019
Full	-11.0192
▁dragon	-11.0192
▁Dress	-11.0195
▁Sunset	-11.0197
▁links	-11.0207
zy	-11.0208
▁upside	-11.0211
▁emerge	-11.0218
dra	-11.022
▁Terror	-11.0222
▁&#149;	-11.0223
▁Simultaneous	-11.0223
▁wizard	-11.0223
▁Isaac	-11.0223
▁frank	-11.0224
▁Tracy	-11.0227
Addison	-11.0227
try	-11.023
▁Hudson	-11.0232
hill	-11.0236
▁profession	-11.0237
▁Im	-11.0238
q	-11.0242
▁fifth	-11.0242
▁2001	-11.0246
▁Wo	-11.0252
▁stages	-11.0253
arn	-11.0258
▁Pitt	-11.0259
take	-11.026
▁Pop	-11.0263
▁vanished	-11.0264
▁amusing	-11.0265
▁consciousness	-11.0265
lia	-11.0266
▁Estate	-11.0268
▁Dawn	-11.0268
▁tap	-11.027
Go	-11.027
Running	-11.0271
▁selecting	-11.0271
▁degree	-11.0272
▁countryside	-11.0273
▁Brooks	-11.0275
▁Tribune	-11.0275
▁guaranteed	-11.0275
RO	-11.0277
▁clothing	-11.0277
▁extend	-11.0284
▁recover	-11.0286
▁visiting	-11.0293
▁wildly	-11.0295
ena	-11.0297
▁advances	-11.0304
▁para	-11.0304
▁alphabet	-11.0305
▁Psychological	-11.0306
▁Jerusalem	-11.0306
▁department	-11.0306
▁mesmerizing	-11.0306
▁captain	-11.0306
▁madness	-11.0308
ww	-11.0309
▁unlock	-11.0309
▁trained	-11.031
immer	-11.0312
▁Forest	-11.0313
▁Lois	-11.0314
▁Ruby	-11.0315
▁sentence	-11.0318
good	-11.0318
roll	-11.0318
Q	-11.0321
▁Fu	-11.0322
▁Madison	-11.0323
▁complement	-11.0324
Inter	-11.0325
▁hopeful	-11.0336
&#133;	-11.0347
▁bonus	-11.0349
▁journalism	-11.0349
▁Hansen	-11.035
▁Joshua	-11.0353
▁north	-11.0354
▁internal	-11.0354
girl	-11.0355
▁Comics	-11.0359
▁broke	-11.0362
SE	-11.0364
▁spa	-11.0371
▁savage	-11.0387
▁Australia	-11.0387
▁architect	-11.0388
▁investors	-11.0388
▁Austin	-11.0388
▁evaluate	-11.0388
▁afternoon	-11.0388
▁Democratic	-11.0389
▁angels	-11.0389
▁Lan	-11.039
▁involvement	-11.039
▁slavery	-11.0391
▁corrupt	-11.0391
▁Alison	-11.0392
▁Thinking	-11.0392
▁Kind	-11.0394
rist	-11.0395
▁Renaissance	-11.0395
Fodor	-11.0397
▁awareness	-11.0401
▁Junior	-11.0402
▁planned	-11.0404
▁Youth	-11.0405
▁flat	-11.0407
▁relatives	-11.042
▁Image	-11.0421
▁acting	-11.0427
▁seasoned	-11.0428
▁database	-11.043
▁exhilarating	-11.043
▁irreverent	-11.043
▁TIMES	-11.043
▁Spider	-11.0431
▁Powell	-11.0431
▁vote	-11.0434
▁$6.7	-11.0434
▁engagement	-11.0434
▁Ocean	-11.044
▁Seattle	-11.0443
▁bra	-11.0444
▁op	-11.0444
▁fund	-11.0448
hon	-11.045
▁ran	-11.0452
▁expression	-11.0454
▁Popular	-11.0458
El	-11.046
▁pal	-11.0465
▁Eagle	-11.0472
▁Lloyd	-11.0472
▁delicate	-11.0472
▁inevitable	-11.0472
▁harsh	-11.0472
▁Vincent	-11.0472
▁Colorado	-11.0472
▁starring	-11.0475
▁Sugar	-11.0475
▁guidebook	-11.0477
ado	-11.0479
▁wounded	-11.048
▁listening	-11.0484
Then	-11.0487
wick	-11.0489
▁rewards	-11.049
▁Build	-11.0501
▁Feel	-11.0504
▁Israeli	-11.0505
▁80	-11.0507
▁Mari	-11.051
Discover	-11.0512
responsibilities	-11.0514
▁Elaine	-11.0514
▁smell	-11.0514
last	-11.0514
▁Machine	-11.0514
▁capable	-11.0515
▁route	-11.0515
▁slip	-11.0516
ching	-11.0516
▁temptation	-11.0516
▁dear	-11.0518
▁mysteriously	-11.0519
▁recognition	-11.052
author	-11.0522
org	-11.0525
▁investigates	-11.0526
▁spirituality	-11.0528
cc	-11.0532
aging	-11.0533
▁symbol	-11.0533
▁Organization	-11.0535
lton	-11.0535
▁Someone	-11.0537
▁shapes	-11.0537
ways	-11.0542
CE	-11.0547
▁Wise	-11.0548
▁Ward	-11.055
▁logic	-11.0552
elli	-11.0553
▁caused	-11.0555
▁curiosity	-11.0556
▁manuscript	-11.0556
▁signature	-11.0556
▁surrender	-11.0556
▁surviving	-11.0556
▁Ernest	-11.0556
▁seafood	-11.0557
▁Nine	-11.0557
▁$6.8	-11.056
▁motherhood	-11.0562
▁artwork	-11.0563
Chicago	-11.0566
▁industrial	-11.0567
▁locked	-11.0568
tte	-11.0569
▁Advice	-11.0569
▁Slow	-11.0572
cle	-11.0573
▁sustain	-11.0575
nn	-11.0584
▁due	-11.0591
▁Teach	-11.0591
▁economics	-11.0592
▁campaigns	-11.0592
word	-11.0596
▁Pot	-11.0596
HO	-11.0597
▁Bru	-11.0598
▁supplies	-11.0598
▁rogue	-11.0599
▁Cheese	-11.0599
▁clan	-11.0603
▁Television	-11.0603
enberg	-11.0604
▁stirring	-11.0606
▁conversations	-11.0607
▁Peters	-11.0607
▁reminds	-11.0607
▁Duck	-11.0608
ET	-11.0608
▁Senator	-11.0609
▁depths	-11.0612
▁Ask	-11.0618
▁raw	-11.0618
gram	-11.0619
▁da	-11.0619
▁Problems	-11.0621
▁Something	-11.0623
▁Mama	-11.0625
▁Stars	-11.0626
▁union	-11.0629
▁gas	-11.0631
mbo	-11.0631
leg	-11.0634
▁notice	-11.0637
▁allies	-11.0639
▁stir	-11.064
▁Sherlock	-11.0641
▁Timothy	-11.0641
▁horrifying	-11.0641
▁incisive	-11.0641
ABLE	-11.0641
▁Lucado	-11.0641
▁Vinci	-11.0641
▁marvelous	-11.0641
▁surgery	-11.0642
▁feast	-11.0642
▁Cream	-11.0642
▁Interest	-11.0642
▁operating	-11.0642
▁frame	-11.0645
▁judgment	-11.0646
▁Glenn	-11.0647
▁poets	-11.0647
▁doors	-11.065
▁Grade	-11.0651
▁quarter	-11.0651
rey	-11.0657
▁visits	-11.0657
▁strengthen	-11.0662
▁rush	-11.0663
▁Desserts	-11.0663
▁reached	-11.0665
▁bag	-11.0667
nar	-11.0676
).","	-11.0677
▁strangers	-11.0681
mus	-11.0683
▁advocate	-11.0684
▁atmosphere	-11.0684
▁penetrating	-11.0684
▁storage	-11.0684
▁investigating	-11.0684
▁suggest	-11.0684
▁Cover	-11.0688
▁alongside	-11.0689
▁Jeremy	-11.069
▁aim	-11.0691
▁Sullivan	-11.0694
Traces	-11.0697
eck	-11.07
▁abandon	-11.0703
▁revelation	-11.0705
▁computers	-11.0705
▁aside	-11.0706
▁Pearson	-11.0709
▁depict	-11.0714
▁Hoffman	-11.0714
boat	-11.0717
▁fianc	-11.072
▁Got	-11.0723
▁nose	-11.0725
▁Kathryn	-11.0727
▁Vegas	-11.0727
Forge	-11.0727
▁request	-11.0728
▁driver	-11.0729
▁Epic	-11.073
▁custom	-11.0732
▁wood	-11.0732
▁pie	-11.0734
▁Hank	-11.0736
▁proof	-11.0736
breaking	-11.0737
▁View	-11.0739
▁Ship	-11.0742
▁Gen	-11.0742
▁chemical	-11.0745
city	-11.0747
▁Mouse	-11.0747
▁closely	-11.0748
▁breakthrough	-11.0749
▁HTML	-11.0749
aff	-11.075
▁opinions	-11.0752
▁Eight	-11.0754
▁meetings	-11.0754
▁functions	-11.0756
▁unable	-11.0758
▁Tam	-11.076
▁Gill	-11.0764
IV	-11.0769
ama	-11.077
▁Simpson	-11.077
▁disastrous	-11.077
▁Race	-11.0771
▁possess	-11.0773
▁Tower	-11.0773
▁Levine	-11.0776
cott	-11.0777
▁Visual	-11.0786
▁Box	-11.0786
▁playful	-11.0798
▁forth	-11.0798
▁Communication	-11.0799
▁influences	-11.0802
too	-11.0804
rous	-11.0807
▁Katz	-11.0809
▁Rod	-11.0809
▁demanding	-11.0809
▁Louisiana	-11.0813
▁senator	-11.0813
▁Mean	-11.0814
til	-11.0814
▁officers	-11.082
▁Strong	-11.0822
home	-11.0823
▁1964",	-11.0826
▁powerfully	-11.0827
▁paths	-11.0828
ridge	-11.0828
human	-11.0829
ffer	-11.0829
▁mistake	-11.0832
▁FL	-11.0834
▁riding	-11.0836
box	-11.0836
▁income	-11.0836
▁Winning	-11.0837
Find	-11.0838
▁Leon	-11.0843
▁funds	-11.0846
▁continent	-11.0855
▁introductory	-11.0857
▁parallel	-11.0857
▁satisfaction	-11.0857
▁unparalleled	-11.0857
▁tasty	-11.0857
▁LLC	-11.0857
▁resume	-11.0857
▁narrow	-11.0857
▁Aaron	-11.0857
▁confusion	-11.0857
hard	-11.0858
▁traveled	-11.0859
▁Train	-11.0859
▁Spain	-11.0861
▁YOU	-11.0863
▁Peggy	-11.0864
▁spouse	-11.0866
▁represents	-11.0867
▁twins	-11.0868
▁reflections	-11.0875
Ed	-11.0878
▁nurse	-11.088
▁pace	-11.0887
▁rely	-11.0889
▁1999	-11.089
▁Give	-11.0891
▁$17.9	-11.0892
▁advertising	-11.09
▁concrete	-11.09
▁Gloria	-11.09
▁relief	-11.09
▁stuck	-11.0901
▁Sense	-11.0902
▁measure	-11.0902
▁requires	-11.0903
size	-11.0905
▁seasons	-11.0906
▁Craft	-11.0909
▁organize	-11.091
▁Enjoy	-11.0911
▁complexity	-11.0912
▁eggs	-11.0913
▁aware	-11.0914
▁However	-11.0915
▁engineer	-11.0917
tur	-11.0922
▁cleaning	-11.0925
▁mouse	-11.0926
▁Report	-11.0928
▁unexpectedly	-11.0931
▁virtual	-11.0931
▁PC	-11.0934
▁Vision	-11.0935
▁Gor	-11.0937
▁minute	-11.0938
▁shoes	-11.0939
▁Saint	-11.0943
▁adolescence	-11.0944
▁heartfelt	-11.0944
▁odyssey	-11.0944
▁prestigious	-11.0944
▁turmoil	-11.0944
▁Klein	-11.0944
Jossey	-11.0944
▁biology	-11.0945
▁Dale	-11.0947
▁Agent	-11.0947
▁tired	-11.0947
▁chronic	-11.0947
▁Denise	-11.0949
▁contend	-11.095
▁Friend	-11.0951
▁agree	-11.0951
gle	-11.0951
▁Vampire	-11.0955
▁Close	-11.0956
▁convince	-11.0957
▁Kill	-11.0957
▁cur	-11.0961
▁survivor	-11.0971
▁smooth	-11.0973
▁reflection	-11.0976
▁showcase	-11.0981
place	-11.0982
▁Thanksgiving	-11.0988
▁expedition	-11.0988
▁Miami	-11.0989
▁rough	-11.0989
▁hanging	-11.0989
gue	-11.099
▁backyard	-11.0991
▁shooting	-11.0991
▁swing	-11.0991
▁burning	-11.0992
real	-11.0992
▁folk	-11.1
Robert	-11.1001
aunt	-11.1002
▁prey	-11.1005
hn	-11.1006
▁Photo	-11.1009
Our	-11.1012
press	-11.1013
▁presenting	-11.1014
▁Ages	-11.1016
▁egg	-11.1019
▁score	-11.102
▁column	-11.102
▁Ana	-11.102
▁eliminate	-11.1025
dale	-11.1026
▁Qu	-11.1028
▁avoiding	-11.1029
▁marks	-11.1031
▁Beverages	-11.1032
▁Florence	-11.1032
▁cunning	-11.1032
▁nurture	-11.1032
▁twice	-11.1032
Harlequin	-11.1032
▁regain	-11.1032
▁Crisis	-11.1032
▁Gilbert	-11.1033
▁knight	-11.1033
▁Terri	-11.1033
▁400	-11.1034
▁testing	-11.1038
bro	-11.1044
Through	-11.1045
Western	-11.1046
fall	-11.1046
carb	-11.1046
▁rarely	-11.1047
perfect	-11.1047
▁Corn	-11.1048
Meet	-11.1048
Lo	-11.1055
▁Mat	-11.1057
pot	-11.1058
▁Were	-11.1059
udi	-11.106
▁Joel	-11.1063
wo	-11.1065
▁spark	-11.1068
▁Karl	-11.1071
▁silver	-11.1077
▁supply	-11.1079
▁Hawaii	-11.108
▁lyrical	-11.1082
▁fighter	-11.1082
▁hailed	-11.1084
▁witnesses	-11.1089
▁cup	-11.1093
▁Bones	-11.1094
itter	-11.1094
Man	-11.1095
Jack	-11.1095
LA	-11.1096
▁Looking	-11.1096
▁encountered	-11.1097
▁guilty	-11.1098
▁Finn	-11.1101
▁Quilting	-11.1101
▁usually	-11.1105
▁experiments	-11.1108
▁$11.	-11.111
▁challenged	-11.111
▁1980	-11.1111
▁Rights	-11.1111
▁SAT	-11.1115
▁frozen	-11.1121
▁northern	-11.1121
▁Wife	-11.1122
▁Spotlight	-11.1122
▁healthful	-11.1122
▁impressive	-11.1122
▁hardcover	-11.1123
nonsense	-11.1125
Riverhead	-11.1125
▁Oz	-11.1126
▁Friedman	-11.1129
▁absolutely	-11.1133
▁achieved	-11.1136
Harvard	-11.1136
School	-11.1136
Modern	-11.1136
▁league	-11.1136
▁counting	-11.1136
▁Kiss	-11.1143
▁Going	-11.1148
▁toys	-11.1149
rio	-11.115
spec	-11.1154
▁companions	-11.116
ibility	-11.1166
▁Photoshop	-11.1166
▁YORK	-11.1166
▁nonfiction	-11.1167
▁Maxwell	-11.1168
ites	-11.1168
▁triumphant	-11.1169
comp	-11.1171
ache	-11.1174
▁Defense	-11.1176
▁rapidly	-11.1178
week	-11.1181
▁survivors	-11.1183
Holt	-11.1184
▁explained	-11.1185
especially	-11.1185
▁confronts	-11.1189
tes	-11.119
erson	-11.119
▁Very	-11.1191
▁genuine	-11.1196
▁Mon	-11.1198
▁innovation	-11.12
GE	-11.1201
▁witch	-11.1209
▁bottle	-11.1211
▁loneliness	-11.1211
brook	-11.1212
▁Alexandra	-11.1212
▁flag	-11.1212
▁Mass	-11.1212
▁Senate	-11.1213
any	-11.1213
▁le	-11.1214
▁thin	-11.1214
▁certainly	-11.1224
avi	-11.1225
▁steal	-11.1226
Where	-11.1227
▁Dana	-11.1237
▁Reflections	-11.1239
▁cartoons	-11.124
▁classical	-11.1244
▁Rat	-11.1248
▁increased	-11.1248
▁poem	-11.1248
▁races	-11.125
▁affected	-11.1251
▁amount	-11.1256
▁Folklore	-11.1257
▁categories	-11.1257
▁principal	-11.1257
▁Jenkins	-11.1257
▁requirements	-11.1257
▁dawn	-11.1257
▁underground	-11.1258
▁Owen	-11.1259
▁fruits	-11.1261
Bestselling	-11.1261
▁Eyewitness	-11.1263
▁establish	-11.1264
▁Rita	-11.1265
▁rat	-11.127
▁knock	-11.127
▁Horses	-11.127
▁drives	-11.1271
▁Paradise	-11.1271
▁loses	-11.1271
Explore	-11.1272
▁largely	-11.128
▁regions	-11.128
▁Char	-11.1282
▁disc	-11.1285
▁enhanced	-11.1286
▁Gil	-11.129
▁endure	-11.1293
▁Mi	-11.1295
mic	-11.1296
▁bestsellers	-11.1298
▁pets	-11.1301
▁burden	-11.1302
▁McCarthy	-11.1302
▁Phyllis	-11.1302
▁Pregnancy	-11.1302
▁inventive	-11.1302
Villard	-11.1302
▁Cur	-11.1303
▁Gospel	-11.1304
▁Rosa	-11.1306
▁$6.9	-11.1308
▁retired	-11.1309
▁outcome	-11.1313
▁happily	-11.1313
lot	-11.1313
That	-11.1314
▁depend	-11.1314
arian	-11.1316
▁Bart	-11.1321
erman	-11.1325
▁painter	-11.1328
▁cry	-11.1329
.“	-11.133
nate	-11.1331
▁apple	-11.1333
▁bread	-11.1336
Take	-11.1336
▁micro	-11.1342
▁formal	-11.1344
▁examining	-11.1348
▁Cameron	-11.1348
▁bathroom	-11.1348
▁Nathan	-11.1348
ban	-11.135
CK	-11.135
▁cars	-11.135
▁quirky	-11.135
▁thrown	-11.1353
▁trap	-11.1354
▁Brenda	-11.1356
▁Deal	-11.1358
▁Diseases	-11.1359
▁Always	-11.1361
▁Yo	-11.1361
▁cheer	-11.1365
rry	-11.1366
▁CliffsNotes	-11.1368
▁1,000	-11.137
▁Winner	-11.137
▁tasks	-11.1375
▁Hy	-11.1376
▁dig	-11.1376
▁hat	-11.1381
▁churches	-11.1381
▁south	-11.1383
▁Plain	-11.1388
▁Connecticut	-11.1394
▁collide	-11.1394
▁crises	-11.1394
▁sidebars	-11.1394
▁seduction	-11.1394
▁trigger	-11.1394
Kensington	-11.1394
▁racing	-11.1394
▁Pepper	-11.1395
▁runaway	-11.1395
ural	-11.1395
ulation	-11.1396
▁Beat	-11.14
▁Hidden	-11.1402
▁Record	-11.1403
▁Legends	-11.1405
▁manners	-11.1407
Michael	-11.141
Christian	-11.1411
walk	-11.1412
opening	-11.1414
▁Herbs	-11.1415
▁dinosaurs	-11.1416
▁Principles	-11.1416
▁Rosen	-11.142
▁guys	-11.142
tim	-11.1422
▁haunt	-11.1427
▁rose	-11.1429
▁attract	-11.1429
lick	-11.143
▁Mount	-11.144
▁tremendous	-11.144
▁Desert	-11.144
▁therapist	-11.144
▁confused	-11.1443
▁adding	-11.1443
▁Missing	-11.1444
▁please	-11.1444
▁hostage	-11.1445
▁dirty	-11.1445
▁Lowell	-11.1445
oy	-11.1449
eller	-11.1451
icle	-11.1453
sign	-11.1453
▁relate	-11.1456
▁corpse	-11.1456
▁Jesse	-11.1457
▁Fern	-11.1459
▁extremely	-11.146
▁Trail	-11.146
Women	-11.1462
▁Leigh	-11.1462
▁pool	-11.1462
▁Bloom	-11.1465
▁opened	-11.1468
olo	-11.1469
TE	-11.147
▁launch	-11.1473
▁curse	-11.1474
▁Having	-11.1475
▁singer	-11.1475
rew	-11.1477
DC	-11.1481
▁Shi	-11.1482
60	-11.1486
▁Temple	-11.1486
▁absorbing	-11.1486
▁etiquette	-11.1486
▁fragile	-11.1486
▁occupation	-11.1486
▁unpredictable	-11.1486
▁Einstein	-11.1486
▁Liberty	-11.1486
▁Watch	-11.1487
▁resistance	-11.1488
▁Ashley	-11.1488
▁Ac	-11.149
▁Knopf	-11.149
nic	-11.1492
▁Packed	-11.1492
▁occasions	-11.1493
▁Executive	-11.1496
▁Sewing	-11.1497
▁passing	-11.1499
Gathers	-11.1501
related	-11.1502
UN	-11.1506
▁ongoing	-11.1508
▁thanks	-11.1508
LY	-11.1515
▁refuge	-11.1517
▁Again	-11.153
Perigee	-11.1532
▁physics	-11.1532
▁Emotions	-11.1533
▁1930	-11.1533
▁Aunt	-11.1534
▁peak	-11.1535
▁sword	-11.1535
▁chair	-11.1537
▁Solutions	-11.1537
▁Cri	-11.154
▁interpretation	-11.1542
▁photograph	-11.1543
tions	-11.1545
▁GA	-11.1546
Young	-11.1553
▁assigned	-11.1555
▁tone	-11.156
wan	-11.1561
▁Reilly	-11.1563
make	-11.1575
▁talks	-11.1579
▁Delaware	-11.1579
▁Physics	-11.1579
▁inexpensive	-11.1579
▁Webster	-11.158
▁dangerously	-11.1582
rap	-11.1582
▁bones	-11.1583
▁lean	-11.1584
▁BOOK	-11.1584
cast	-11.1585
▁Brother	-11.1586
state	-11.1591
▁surprisingly	-11.1591
▁murderous	-11.1592
▁MA	-11.1595
multiple	-11.1598
ago	-11.1598
)","""	-11.1599
plus	-11.16
▁joint	-11.1603
mel	-11.1607
ux	-11.1609
▁photographic	-11.1611
▁Warner	-11.1615
▁exile	-11.1615
uth	-11.1616
xi	-11.1618
err	-11.1619
▁2002	-11.1623
▁boom	-11.1623
Adams	-11.1626
▁quizzes	-11.1626
▁salvation	-11.1626
▁servant	-11.1626
▁sorrow	-11.1626
▁Dallas	-11.1626
▁Investing	-11.1626
▁reckless	-11.1626
▁supernatural	-11.1626
▁Must	-11.1627
▁Dinner	-11.1628
▁Jacqueline	-11.1631
▁Yu	-11.1631
▁collector	-11.1633
▁Stop	-11.1634
▁Porter	-11.1636
hor	-11.1636
coming	-11.1637
rat	-11.1637
▁troops	-11.1639
▁Flo	-11.164
▁Gun	-11.1642
▁Ker	-11.1642
▁waste	-11.1643
find	-11.1643
Alfred	-11.1645
fashioned	-11.1648
▁Heads	-11.1651
▁flu	-11.1653
▁Hor	-11.1653
▁BE	-11.1654
nell	-11.1658
▁Bring	-11.1658
▁ta	-11.1659
▁considers	-11.1659
Praise	-11.1662
ND	-11.1665
▁portrays	-11.1669
rit	-11.1672
▁cult	-11.1672
▁Moscow	-11.1673
▁Quotations	-11.1673
▁poultry	-11.1673
▁tomorrow	-11.1673
▁divine	-11.1673
▁Advanced	-11.1673
▁Conrad	-11.1674
▁sat	-11.1674
▁nearby	-11.1684
▁par	-11.1687
▁Door	-11.1687
▁Goose	-11.1688
▁satisfy	-11.169
▁photographers	-11.1693
George	-11.1693
seven	-11.1695
EL	-11.1696
▁Phillip	-11.1704
▁ne	-11.1708
ically	-11.1712
ami	-11.1721
▁icon	-11.1721
▁Malcolm	-11.1721
▁McNally	-11.1721
▁Sylvia	-11.1721
▁Eugene	-11.1721
▁uplifting	-11.1721
▁decorative	-11.1721
▁Bat	-11.1721
▁Venice	-11.1721
▁Reissue	-11.1722
▁partnership	-11.1722
▁Erin	-11.1723
uct	-11.1728
▁Carson	-11.1728
▁limited	-11.1737
▁aboard	-11.1739
▁Gifts	-11.174
Minute	-11.174
▁tastes	-11.1746
▁Heal	-11.1749
▁Breeds	-11.175
wall	-11.1751
▁noble	-11.1751
▁sauces	-11.1751
▁believers	-11.1754
▁instincts	-11.1761
▁1998	-11.1762
▁trainer	-11.1763
▁Coulter	-11.1768
▁colonial	-11.1768
▁convenient	-11.1768
▁pizza	-11.1768
▁whisper	-11.1768
Abingdon	-11.1768
▁inform	-11.1768
▁Irving	-11.1769
▁mask	-11.1769
▁tackle	-11.177
▁seasonal	-11.1771
▁analyze	-11.1772
▁mixed	-11.1775
▁candor	-11.178
▁stakes	-11.1781
▁Storybook	-11.1782
▁headed	-11.1783
▁regime	-11.1786
wife	-11.1788
▁Students	-11.1788
Pearson	-11.1789
▁Cru	-11.1789
▁Consumer	-11.1789
▁settings	-11.1791
▁fathers	-11.1794
▁Updated	-11.1795
▁Theology	-11.1795
aut	-11.1795
▁mate	-11.1796
▁checklists	-11.1797
▁Jokes	-11.1797
boy	-11.1805
▁Carroll	-11.1806
▁Pete	-11.181
range	-11.1811
▁crush	-11.1812
▁nationally	-11.1812
▁Hero	-11.1816
▁Administration	-11.1816
▁accessories	-11.1816
▁autobiography	-11.1816
▁prescription	-11.1816
▁stylish	-11.1816
▁illegal	-11.1816
▁convey	-11.1816
▁operative	-11.1816
▁productivity	-11.1816
▁conscience	-11.1817
▁Stevenson	-11.1823
▁west	-11.1827
▁seriously	-11.1827
▁script	-11.1829
▁Legal	-11.183
▁Op	-11.1832
▁emerged	-11.1833
▁Indians	-11.1834
ree	-11.1834
tern	-11.1835
▁Private	-11.1837
▁paid	-11.1839
▁iron	-11.184
▁tourist	-11.1842
CT	-11.1844
▁bi	-11.1845
▁fateful	-11.1845
under	-11.1847
▁Gay	-11.1847
▁lavish	-11.1849
Part	-11.185
▁looked	-11.185
▁fulfilling	-11.1853
▁VA	-11.1853
▁Hans	-11.1861
▁institution	-11.1862
▁immortal	-11.1862
▁careful	-11.1864
▁treasury	-11.1864
▁Doyle	-11.1864
▁gear	-11.1865
▁Luther	-11.1866
Brien	-11.1866
▁peril	-11.1871
▁Smithsonian	-11.1871
mont	-11.1872
▁rate	-11.1874
add	-11.1876
▁Challenge	-11.1877
▁Lies	-11.1877
▁Rise	-11.1877
▁Rogers	-11.1879
▁Total	-11.1883
▁bone	-11.1884
tel	-11.1884
vol	-11.1885
▁ranks	-11.1888
▁loud	-11.1891
Bass	-11.1893
▁escapes	-11.1906
▁Lose	-11.1909
▁mortal	-11.1911
▁Rosemary	-11.1913
▁analyst	-11.1913
▁eminent	-11.1913
▁university	-11.1913
40	-11.1913
▁Prevention	-11.1914
▁versions	-11.1915
▁wildlife	-11.1917
▁Gabriel	-11.1918
Amer	-11.1919
Smithmark	-11.1922
▁retelling	-11.1922
▁snacks	-11.1925
▁pitch	-11.193
▁destructive	-11.1932
▁rap	-11.1932
His	-11.1933
Covers	-11.1934
Blue	-11.1934
Reading	-11.1936
▁shown	-11.1938
▁Core	-11.1938
▁sleuth	-11.1944
▁permanent	-11.1946
▁magazines	-11.1946
▁praise	-11.1946
shed	-11.1948
21	-11.1949
▁shocked	-11.1949
lash	-11.1952
▁investigati	-11.1956
▁Kir	-11.1956
▁Chase	-11.1959
▁del	-11.196
200	-11.1961
▁Vatican	-11.1961
▁ABC	-11.1961
▁Dun	-11.1962
hl	-11.1962
▁slaves	-11.1965
▁Enterprise	-11.1967
▁Flower	-11.1968
▁difficulties	-11.1968
▁nowhere	-11.1968
▁yard	-11.1971
▁Wesley	-11.1972
▁Famous	-11.1973
▁Maybe	-11.1976
▁fold	-11.1977
▁Traditional	-11.1979
▁protecting	-11.198
▁soup	-11.1981
VE	-11.1991
▁Moral	-11.1991
dog	-11.1991
▁damage	-11.1995
▁ski	-11.1997
rge	-11.1997
▁Sen	-11.1997
▁Add	-11.2001
▁mere	-11.2001
ROM	-11.2001
▁Den	-11.2002
▁th	-11.2006
▁analyzes	-11.2006
▁failures	-11.2007
▁cuts	-11.2008
ali	-11.2008
▁rituals	-11.201
▁Economy	-11.201
▁Teresa	-11.201
▁tantalizing	-11.201
▁yoga	-11.201
▁carried	-11.201
▁foreword	-11.201
▁singular	-11.201
▁Clancy	-11.201
ELL	-11.2012
▁pray	-11.2013
▁Bou	-11.2014
Qu	-11.2015
▁otherwise	-11.2016
▁Answer	-11.2017
▁Paint	-11.2019
▁Midnight	-11.202
lost	-11.2021
ME	-11.2023
▁Hotel	-11.2023
▁confronted	-11.2026
▁Told	-11.2027
▁Universe	-11.2028
▁Course	-11.203
loud	-11.2031
▁Pooh	-11.2034
▁concludes	-11.2035
pla	-11.2037
▁Prayers	-11.2037
Four	-11.2038
▁Jew	-11.2041
rid	-11.2042
▁teachings	-11.2042
▁Clear	-11.2044
▁divide	-11.2044
▁harder	-11.2049
▁Mountains	-11.205
▁Schwartz	-11.2059
▁delectable	-11.2059
▁applied	-11.2059
▁ladies	-11.2059
▁Darcy	-11.206
▁Berry	-11.2063
body	-11.2064
▁wry	-11.2066
▁pit	-11.2066
▁drinking	-11.2067
▁Herald	-11.2071
▁Perl	-11.2073
▁western	-11.2076
▁rumors	-11.2078
Contemporary	-11.2082
▁languages	-11.2084
Like	-11.2084
▁senses	-11.2084
▁although	-11.2084
▁studying	-11.2087
▁pioneer	-11.209
Frommer	-11.2092
wise	-11.2093
see	-11.2093
▁Clean	-11.21
▁continuing	-11.2108
▁contrast	-11.2108
▁explosion	-11.2108
▁millennium	-11.2108
▁Geoffrey	-11.2108
LP	-11.211
▁tend	-11.211
▁Biology	-11.211
nor	-11.2112
▁Egyptian	-11.2113
▁Lemon	-11.2114
Jo	-11.2117
▁Ride	-11.2117
▁chefs	-11.2119
eau	-11.2121
▁Had	-11.2122
▁translation	-11.2123
▁phenomenal	-11.2123
▁According	-11.2127
▁Ban	-11.2134
▁Yankee	-11.2134
▁passages	-11.2139
▁adds	-11.214
▁Wide	-11.2142
▁listing	-11.2143
rian	-11.2143
▁Praise	-11.2149
▁bull	-11.2149
▁leg	-11.2152
▁Sur	-11.2156
▁Source	-11.2157
▁Conflict	-11.2158
▁Strategy	-11.2158
▁controversy	-11.2158
▁enterprise	-11.2158
▁unthinkable	-11.2158
▁Curtis	-11.2158
▁throne	-11.2158
▁sitting	-11.216
▁Pam	-11.2161
▁Workbook	-11.2163
▁na	-11.2166
Sha	-11.2169
▁2007	-11.2173
▁file	-11.2174
▁Clay	-11.2174
▁Gate	-11.2175
▁maximize	-11.2175
▁founding	-11.2178
▁Text	-11.218
Broadway	-11.2182
▁communications	-11.2183
▁boot	-11.2186
▁Sign	-11.2196
▁Cup	-11.2198
orn	-11.2202
▁flash	-11.2202
etti	-11.2206
▁Families	-11.2207
▁celebrities	-11.2207
▁meticulous	-11.2207
▁vulnerable	-11.2207
▁zone	-11.2208
▁Monica	-11.2208
▁Trivia	-11.2208
▁leap	-11.2208
▁Janice	-11.2209
▁cabinet	-11.2209
▁Han	-11.221
▁Ground	-11.221
▁Kin	-11.221
▁surgeon	-11.221
▁governor	-11.2212
▁visions	-11.2212
▁remained	-11.2213
▁priceless	-11.2214
▁Walsh	-11.2215
▁commonly	-11.2216
▁im	-11.2218
▁location	-11.222
▁tracks	-11.2225
awaited	-11.223
▁Cla	-11.2231
▁touches	-11.2232
DP	-11.2233
ida	-11.2237
▁Treasure	-11.2238
▁Bowl	-11.2242
▁Iraqi	-11.2243
▁yes	-11.2245
▁widowed	-11.2248
ame	-11.2255
▁Chesapeake	-11.2257
▁regret	-11.2257
▁phase	-11.2257
▁Almanac	-11.2258
owitz	-11.2258
bal	-11.2259
▁Inter	-11.226
▁criticism	-11.226
▁laughing	-11.226
▁athletes	-11.2261
▁Betsy	-11.2265
raw	-11.2268
▁Megan	-11.2268
▁grandparents	-11.227
▁measures	-11.2278
▁plots	-11.2279
▁neuro	-11.2279
▁launched	-11.2281
▁rec	-11.2282
▁sixth	-11.2283
▁breath	-11.2284
▁70	-11.2284
▁returning	-11.23
Fat	-11.2301
lly	-11.2303
▁continued	-11.2304
▁Welsh	-11.2308
▁horrific	-11.2308
▁thief	-11.2308
▁Football	-11.2308
▁promotion	-11.2308
▁heartbreak	-11.2308
▁Saudi	-11.2308
▁somewhere	-11.2313
▁Hughes	-11.2315
▁promising	-11.2317
▁towns	-11.2317
▁doomed	-11.2319
▁Bri	-11.232
▁2005	-11.2322
▁Clifford	-11.2325
▁closed	-11.2325
▁Seasons	-11.2327
▁exam	-11.2328
87	-11.2329
▁creature	-11.2329
▁popularity	-11.2334
▁extended	-11.2335
Using	-11.2339
▁unearth	-11.234
▁sole	-11.234
▁emphasizes	-11.2342
▁wouldn	-11.2342
▁advisor	-11.2342
▁shattering	-11.2344
▁unfold	-11.2344
ria	-11.2346
far	-11.2354
▁Director	-11.2355
▁Pain	-11.2356
▁Community	-11.2358
▁Shirley	-11.2358
▁compendium	-11.2358
▁pitfalls	-11.2358
▁1945	-11.2359
▁1940	-11.2359
▁revision	-11.236
▁$4	-11.236
▁$7.5	-11.236
▁gradually	-11.2362
▁Services	-11.2364
RT	-11.2368
▁counselor	-11.2368
▁stroke	-11.2371
▁Comprehensive	-11.2372
▁Kent	-11.2372
▁Raising	-11.2373
▁ideals	-11.2373
▁90	-11.2374
▁politician	-11.2375
ppe	-11.2377
▁Wi	-11.2378
25	-11.2379
▁x	-11.2379
▁Jeanne	-11.238
▁schedule	-11.2384
▁Gal	-11.2386
hem	-11.2387
yo	-11.2389
▁Tru	-11.239
post	-11.2395
▁identifying	-11.2396
▁Fri	-11.2407
▁Whole	-11.2407
▁admit	-11.2408
01	-11.2408
▁guided	-11.2408
HOUGHTON	-11.2409
▁Gettysburg	-11.2409
▁MIFFLIN	-11.2409
▁estranged	-11.2409
▁privacy	-11.2409
▁journeys	-11.2409
▁broadcast	-11.2409
▁hatred	-11.241
▁assist	-11.2411
▁Rather	-11.2411
▁gap	-11.2413
▁partners	-11.2413
▁Carlson	-11.2413
▁Brace	-11.2415
Red	-11.2415
▁attractions	-11.2433
secret	-11.2436
▁apparent	-11.2444
▁hearing	-11.2451
keeper	-11.2452
80	-11.2452
▁sing	-11.2457
▁Greece	-11.246
▁flood	-11.246
▁reunion	-11.246
▁endearing	-11.246
▁Yoga	-11.2463
▁Saga	-11.2464
▁replace	-11.2465
▁$6.5	-11.2466
▁Cut	-11.2467
▁alcohol	-11.2467
▁(2	-11.2469
▁Plants	-11.247
▁lore	-11.2471
Art	-11.2472
▁Au	-11.2472
▁Whit	-11.2473
▁Brun	-11.2474
▁PA	-11.2474
▁warriors	-11.2477
▁shoot	-11.248
▁Merlin	-11.248
▁Selling	-11.2487
▁Dam	-11.2487
Ortho	-11.2487
Volume	-11.2487
Most	-11.2491
▁Hawk	-11.2492
▁Stuff	-11.2494
▁Crow	-11.2498
▁Hills	-11.2498
▁Worth	-11.2499
▁spirits	-11.2505
▁Eli	-11.2507
▁1992	-11.2508
▁emergency	-11.2511
▁Comfort	-11.2511
▁fiery	-11.2511
▁Repair	-11.2511
tine	-11.2512
▁philosophical	-11.2512
▁Calvin	-11.2512
▁courtroom	-11.2513
▁severe	-11.2513
▁spies	-11.2516
15	-11.2518
izz	-11.2519
ique	-11.252
▁taxes	-11.2525
▁panic	-11.2525
▁Cul	-11.2531
▁candidate	-11.2533
▁machines	-11.2535
?”	-11.2536
start	-11.2537
Yourself	-11.2539
scale	-11.2542
cross	-11.2544
▁fearless	-11.2545
▁canine	-11.2549
▁overall	-11.2551
▁Killer	-11.2553
▁Meditations	-11.2556
▁uncertain	-11.2561
rad	-11.2562
▁eighty	-11.2562
▁Alternative	-11.2563
▁anonymous	-11.2563
▁engrossing	-11.2563
▁intensity	-11.2563
▁obscure	-11.2563
▁reinvent	-11.2563
▁treacherous	-11.2563
▁yellow	-11.2563
▁disguise	-11.2563
iti	-11.2563
▁rugged	-11.2563
Introduce	-11.2563
▁Transform	-11.2564
▁belong	-11.2568
▁Fix	-11.257
bird	-11.2572
▁Loving	-11.2574
▁cave	-11.2575
▁Inspector	-11.2576
▁Single	-11.2577
▁emotion	-11.2578
▁Iris	-11.2582
▁opinion	-11.2584
Nat	-11.2584
▁Inn	-11.2588
16	-11.2589
▁enjoyed	-11.2592
▁Matters	-11.2594
▁fundamentals	-11.2595
▁Anti	-11.2597
▁Try	-11.2602
▁Wonder	-11.2603
▁cow	-11.2603
▁sensation	-11.2604
▁symbols	-11.2606
titude	-11.2609
▁Doubleday	-11.2613
▁Collect	-11.2614
▁climax	-11.2615
▁feminist	-11.2615
▁superstar	-11.2615
▁Tiger	-11.2616
▁Discovery	-11.2619
▁wounds	-11.2619
▁20,000	-11.262
▁ambitions	-11.2622
▁Write	-11.2625
▁newspapers	-11.2627
▁Moments	-11.2627
▁Dev	-11.2628
▁sleeping	-11.263
▁soil	-11.2631
Bo	-11.2633
▁Letter	-11.2633
▁arise	-11.2633
▁actors	-11.2634
tale	-11.2635
ffy	-11.2636
96	-11.2637
▁immigrant	-11.2638
▁tongue	-11.2639
▁recording	-11.264
▁lawyers	-11.2642
▁stream	-11.2643
child	-11.2645
▁Bryan	-11.2646
Make	-11.2647
▁Net	-11.265
▁Create	-11.2653
▁22	-11.2654
▁root	-11.2656
▁Korea	-11.2661
strom	-11.2663
▁hits	-11.2665
▁god	-11.2666
▁Oregon	-11.2667
▁bibliography	-11.2667
▁celebrating	-11.2667
▁cocktail	-11.2667
▁expensive	-11.2667
▁Evelyn	-11.2668
▁undercover	-11.2669
▁drinks	-11.2673
▁Decker	-11.2674
▁Kil	-11.2678
▁designing	-11.2679
▁Week	-11.2679
▁Included	-11.268
▁Treat	-11.2681
▁1963",	-11.2685
▁Cool	-11.2685
elect	-11.2688
▁dessert	-11.2691
▁citizen	-11.2691
▁contribution	-11.2692
▁employee	-11.2695
Lonely	-11.2696
▁Lover	-11.2697
Let	-11.2699
▁Problem	-11.2699
▁retain	-11.2701
▁finished	-11.2702
kill	-11.2702
▁Teacher	-11.2706
▁promised	-11.2712
▁accepted	-11.2716
▁Fathers	-11.2718
▁harbor	-11.2719
▁Campaign	-11.2719
▁Democracy	-11.2719
▁smoke	-11.2719
▁awesome	-11.2719
▁jail	-11.272
▁Bonnie	-11.272
▁Tucker	-11.2721
atory	-11.2721
▁Bestseller	-11.2721
Tarcher	-11.2722
▁progressive	-11.2722
▁associated	-11.2726
▁Canfield	-11.2727
▁protest	-11.2728
▁Weiss	-11.2732
▁upper	-11.2735
▁surrounded	-11.2736
▁Ol	-11.2737
▁accomplishments	-11.2738
!”	-11.2739
▁gather	-11.2745
▁suspicion	-11.2745
▁monster	-11.2745
▁Ready	-11.2748
▁spare	-11.2748
Author	-11.2748
Features	-11.2749
▁Va	-11.275
giving	-11.275
about	-11.2754
▁structures	-11.2759
▁lays	-11.2763
▁bat	-11.2765
▁Lit	-11.2765
▁below	-11.2768
ace	-11.277
▁fad	-11.2771
▁witnessed	-11.2771
both	-11.2771
▁Energy	-11.2772
▁conference	-11.2772
▁electrifying	-11.2772
▁vintage	-11.2772
▁testament	-11.2772
▁spiral	-11.2772
▁Herman	-11.2772
▁commentator	-11.2772
▁Teddy	-11.2774
▁productive	-11.2774
▁toughest	-11.2777
▁Mickey	-11.2782
▁villain	-11.2785
▁wondering	-11.2786
▁Penn	-11.2787
▁Met	-11.279
ld	-11.2791
▁NY	-11.2795
cus	-11.2795
▁Ob	-11.2795
Tom	-11.2801
▁chances	-11.2802
▁Fields	-11.2808
▁lights	-11.2808
▁Myths	-11.2815
▁visitors	-11.2817
▁bind	-11.2819
▁assumptions	-11.282
▁killers	-11.282
▁surprised	-11.2821
aki	-11.2822
▁1996	-11.2823
▁1970	-11.2823
▁Fitzgerald	-11.2825
▁enthusiasm	-11.2825
▁inhabitants	-11.2825
▁Valerie	-11.2825
▁Vicki	-11.2825
▁Hold	-11.2825
▁ticket	-11.2825
▁Lucas	-11.2826
▁Burton	-11.2828
▁$7.6	-11.2829
▁visionary	-11.2829
▁builds	-11.2829
baum	-11.2831
▁toddlers	-11.2831
▁reward	-11.2831
▁traveler	-11.2832
▁Regan	-11.2834
48	-11.2841
writing	-11.2841
▁lighting	-11.2843
▁Columbia	-11.2851
▁disappear	-11.2853
▁Eden	-11.286
▁fiercely	-11.2863
▁Gall	-11.2866
▁thinkers	-11.2867
verb	-11.2867
▁Insight	-11.2872
▁Share	-11.2873
ori	-11.2875
▁Late	-11.2875
▁Ven	-11.2877
▁Holocaust	-11.2878
▁lucid	-11.2878
▁shark	-11.2878
▁Reason	-11.2878
▁housing	-11.2878
▁organ	-11.2878
▁arm	-11.2878
▁75,000	-11.2879
▁Weber	-11.288
▁adoption	-11.2881
▁Burns	-11.2882
▁Nobel	-11.2882
▁Daughters	-11.2886
▁Break	-11.2888
▁deny	-11.2888
▁Count	-11.2893
▁assert	-11.2895
arm	-11.2895
▁span	-11.2895
▁port	-11.2899
rank	-11.29
Wordsworth	-11.2902
▁adopt	-11.2905
▁activist	-11.2908
▁Pack	-11.2908
dollar	-11.2909
Connor	-11.291
▁introductions	-11.291
▁Iron	-11.291
▁Pl	-11.2912
Master	-11.2913
▁gods	-11.2913
▁locate	-11.2917
looking	-11.2917
▁Quest	-11.2918
▁marriages	-11.292
▁Final	-11.2921
▁engine	-11.2927
▁Mil	-11.2927
▁planting	-11.2928
▁Swindoll	-11.2931
▁shaping	-11.2931
▁Breakfast	-11.2931
▁studio	-11.2931
▁Clement	-11.2932
▁desk	-11.2932
ean	-11.2934
▁carries	-11.2934
▁Performance	-11.2934
▁bars	-11.2935
ika	-11.294
▁poetic	-11.2941
rim	-11.2942
▁commissioned	-11.2944
▁deck	-11.2944
▁lab	-11.2945
▁log	-11.2949
LB	-11.295
▁Basics	-11.2955
▁Spot	-11.2957
▁Broadway	-11.2959
bri	-11.2959
▁2006	-11.2961
husband	-11.2963
▁Resource	-11.2964
▁prospect	-11.2965
▁unit	-11.2966
bling	-11.2971
▁variations	-11.2972
▁pressures	-11.2973
nov	-11.2975
▁OS	-11.2975
▁shame	-11.2976
▁cap	-11.2978
▁tape	-11.2978
aught	-11.2979
▁divorced	-11.2981
▁Chemistry	-11.2985
▁Purpose	-11.2985
▁plastic	-11.2985
▁Version	-11.2985
▁Northern	-11.2985
cation	-11.2985
▁fault	-11.2986
▁convert	-11.2986
▁maze	-11.2986
▁improvement	-11.2986
▁Allison	-11.2989
▁portrayal	-11.2989
oh	-11.2989
34	-11.299
Tells	-11.2992
ssel	-11.2994
mag	-11.2995
▁Maya	-11.2995
grade	-11.2995
▁Weather	-11.2996
▁inspires	-11.2998
▁Blair	-11.3
▁mi	-11.3004
▁Cr	-11.3007
▁watched	-11.3009
▁Turner	-11.3009
▁weak	-11.3011
▁Gore	-11.3012
▁designers	-11.3012
95	-11.3013
eh	-11.3013
▁contributors	-11.3016
▁compete	-11.3018
▁engineering	-11.3023
▁covert	-11.3026
▁pin	-11.3029
▁Fodor	-11.3031
▁jet	-11.3033
▁push	-11.3036
▁dealer	-11.3036
▁Teens	-11.3039
▁Strength	-11.3039
▁espionage	-11.3039
▁stood	-11.3039
▁Sacred	-11.3039
▁prompt	-11.3039
▁installment	-11.304
▁$9.4	-11.304
▁hostile	-11.3042
▁Nat	-11.3042
▁weekly	-11.3043
▁Tommy	-11.3043
▁positions	-11.3044
▁Ethan	-11.3046
▁Idea	-11.3047
▁DVD	-11.305
▁delights	-11.3051
▁Video	-11.3052
▁acceptance	-11.3053
▁hears	-11.3057
▁1962",	-11.3057
▁bite	-11.3059
▁watches	-11.306
▁march	-11.3062
▁recommended	-11.307
▁affects	-11.307
▁shelter	-11.3072
Some	-11.3074
Atlantic	-11.3075
▁Jose	-11.3075
ENT	-11.3076
eff	-11.3076
▁regard	-11.3076
▁Sagas	-11.3076
lis	-11.3076
▁discussed	-11.3079
▁Reg	-11.3079
▁burned	-11.308
ala	-11.3081
▁delves	-11.3085
▁Barbecue	-11.3093
▁convincing	-11.3093
▁sensible	-11.3093
▁invisible	-11.3093
▁square	-11.3093
▁deceit	-11.3093
din	-11.3095
▁$7.9	-11.3098
shing	-11.3099
▁Secretary	-11.3099
▁Combin	-11.3099
▁everybody	-11.3099
▁shots	-11.31
▁consumers	-11.3101
▁Applications	-11.3102
iac	-11.3105
▁Fine	-11.3105
▁Others	-11.3105
▁glittering	-11.3105
▁praised	-11.311
▁tight	-11.311
turning	-11.3111
▁explored	-11.3112
▁reminder	-11.3115
▁Artists	-11.3115
crib	-11.3116
▁chemistry	-11.3118
▁alternatives	-11.3119
▁gu	-11.312
▁Fund	-11.3124
▁Lay	-11.3125
▁Puzzles	-11.3126
▁Marian	-11.3127
▁Miracle	-11.313
▁privilege	-11.3133
▁govern	-11.3138
33	-11.3142
▁arguments	-11.3143
▁Atkins	-11.3146
dem	-11.3147
▁poison	-11.3148
▁appetite	-11.3148
▁democratic	-11.3148
▁Miranda	-11.3148
Grove	-11.3148
▁2012	-11.3149
▁peer	-11.3151
▁suitable	-11.3152
▁eighteenth	-11.3153
▁humankind	-11.3154
Comm	-11.3155
▁vitality	-11.3155
sters	-11.3157
▁proved	-11.3157
▁Rush	-11.3157
▁Extraordinary	-11.3157
▁Federal	-11.3158
▁Chance	-11.3158
beat	-11.3159
▁Penny	-11.316
▁Algebra	-11.3162
▁educators	-11.3166
▁Butter	-11.3172
▁contract	-11.3173
▁Oprah	-11.3175
▁transport	-11.318
▁wartime	-11.3181
Living	-11.3183
kins	-11.3186
▁worker	-11.319
reference	-11.3192
▁networks	-11.3192
▁diver	-11.3193
▁closet	-11.3194
Classic	-11.3196
link	-11.3198
▁Scha	-11.32
Mary	-11.3201
▁Bunny	-11.3203
▁bachelor	-11.3203
▁cooperation	-11.3203
▁thrust	-11.3203
▁biographies	-11.3203
▁Brennan	-11.3203
▁heavy	-11.3203
▁obsessive	-11.3203
▁auction	-11.3203
cade	-11.3204
▁struck	-11.3204
▁baking	-11.3204
▁Randall	-11.3204
▁Cartoons	-11.3208
▁Darkness	-11.321
▁que	-11.3211
▁sensational	-11.3215
▁1961",	-11.3216
▁Corps	-11.3217
▁defining	-11.3218
▁Focus	-11.322
▁Bert	-11.3221
▁relates	-11.3224
▁Erik	-11.3227
▁Rider	-11.3228
▁Tar	-11.3233
▁WV	-11.3234
Charles	-11.3239
Baker	-11.324
▁Ferr	-11.3241
▁Holland	-11.3241
▁Cookies	-11.3242
ona	-11.3242
▁initial	-11.3243
▁notable	-11.3246
sum	-11.325
▁failing	-11.3253
▁unless	-11.3256
arrow	-11.3257
▁Comic	-11.3258
▁luxury	-11.3258
▁separation	-11.3259
▁Effective	-11.3259
▁costume	-11.3259
▁Leaf	-11.326
▁Staff	-11.3261
▁complexities	-11.3262
▁diagnosed	-11.3264
hal	-11.3265
▁impression	-11.3266
▁Till	-11.3267
TER	-11.3268
▁Masters	-11.3269
eva	-11.3273
▁ear	-11.3277
▁Notable	-11.3279
▁Pictures	-11.3279
▁reaching	-11.328
pel	-11.3283
▁immigrants	-11.3289
▁scar	-11.3293
▁365	-11.3294
country	-11.3295
anna	-11.3295
▁dates	-11.3295
▁Strange	-11.3296
Term	-11.3299
▁vegetable	-11.3299
raising	-11.3299
▁tempting	-11.3301
Men	-11.3302
▁savor	-11.3303
""","	-11.3305
▁usage	-11.3307
▁Gone	-11.3308
▁disciplines	-11.3308
cco	-11.3309
▁Dinosaurs	-11.3311
▁Grow	-11.3312
▁tragedies	-11.3314
▁treachery	-11.3314
▁resonate	-11.3314
Candlewick	-11.3314
▁elected	-11.3314
▁execution	-11.3315
▁raid	-11.3315
▁sparkling	-11.3315
▁Cookbooks	-11.3316
▁Persian	-11.3318
▁Joanna	-11.3319
▁pi	-11.3321
▁treasured	-11.3323
▁graphics	-11.3324
▁Giant	-11.3324
quality	-11.3326
▁assess	-11.3327
▁Viking	-11.3335
NA	-11.3337
▁Laurel	-11.3337
▁Photograph	-11.334
▁Romantic	-11.334
▁Pur	-11.3341
▁Gl	-11.3343
▁CS	-11.3344
lessness	-11.3345
▁recruit	-11.3348
▁fuel	-11.3348
97	-11.3349
food	-11.3349
Sunset	-11.335
mir	-11.3353
▁Non	-11.3355
▁guarantee	-11.3355
▁principle	-11.3356
▁Disease	-11.3357
▁beginner	-11.3365
▁references	-11.3365
▁Pin	-11.3367
▁Warrior	-11.3368
Hearst	-11.3369
▁Osborne	-11.337
▁welfare	-11.337
▁Composition	-11.337
▁predator	-11.337
▁Activity	-11.337
▁Adrian	-11.337
▁blueprint	-11.337
ML	-11.3371
▁empower	-11.3371
▁salt	-11.3371
▁Abby	-11.3375
▁Career	-11.3377
▁Block	-11.3378
▁Alphabet	-11.3383
▁Quilt	-11.3385
▁possession	-11.3386
▁Nu	-11.3386
ents	-11.339
▁Half	-11.3392
▁safely	-11.3393
▁app	-11.3395
▁Sing	-11.3401
▁suffered	-11.3402
▁Whitman	-11.3403
▁formed	-11.3404
love	-11.3406
something	-11.3407
▁joyful	-11.3407
mie	-11.3408
taking	-11.3408
bil	-11.341
▁volunteer	-11.3414
▁alliance	-11.3414
▁finger	-11.3415
Will	-11.3416
▁quilts	-11.3419
▁Potato	-11.342
▁Dictionaries	-11.3426
▁pivotal	-11.3426
▁terrific	-11.3426
boo	-11.3426
▁Rescue	-11.3426
▁maximum	-11.3426
▁Glory	-11.3426
▁rational	-11.3427
▁spotlight	-11.3427
▁feud	-11.3427
▁1995	-11.3428
▁edited	-11.3432
▁Arizona	-11.3433
Seven	-11.3433
▁masters	-11.344
jack	-11.3441
▁Colonial	-11.3442
▁Thing	-11.3442
68	-11.3444
▁brush	-11.3445
▁spots	-11.3445
▁illustrator	-11.3445
▁hills	-11.3446
▁decorations	-11.3449
rel	-11.3449
▁successes	-11.3449
▁Sound	-11.3451
▁trips	-11.3453
▁pros	-11.3455
▁exposed	-11.3456
▁Sanders	-11.346
▁Port	-11.3465
▁Saving	-11.3465
High	-11.3466
▁eloquent	-11.3467
▁motivate	-11.3468
▁sentences	-11.3468
▁dare	-11.3468
▁el	-11.3471
lio	-11.3472
▁concerning	-11.3472
▁steam	-11.3472
▁finances	-11.3474
▁Draw	-11.348
▁pulled	-11.3481
▁Sexual	-11.3482
▁varieties	-11.3482
▁Etiquette	-11.3482
▁Homeowner	-11.3482
▁Kansas	-11.3482
▁distill	-11.3483
▁tensions	-11.3483
▁organizing	-11.3483
▁Diaries	-11.3483
▁millionaire	-11.3483
▁collective	-11.3483
▁1994	-11.3485
▁devices	-11.3486
▁List	-11.3486
famous	-11.3487
▁reverse	-11.3487
rill	-11.3489
▁scary	-11.3494
▁Double	-11.3495
▁beaches	-11.3495
▁speeches	-11.3495
▁counsel	-11.3497
▁Dub	-11.3497
▁motives	-11.3499
Mr	-11.3502
▁Coll	-11.3503
▁stumbles	-11.3505
▁Wiley	-11.3506
nick	-11.3508
▁Bee	-11.3508
▁followers	-11.3512
Laurel	-11.3521
▁miraculous	-11.3524
▁Mayer	-11.3525
Writer	-11.3527
▁primer	-11.3528
▁website	-11.353
pound	-11.3533
ime	-11.3536
Many	-11.3539
▁Tin	-11.3539
▁barbecue	-11.3539
▁capacity	-11.3539
▁drift	-11.3539
▁encyclopedia	-11.3539
▁mathematics	-11.3539
▁psychiatrist	-11.3539
▁stubborn	-11.3539
▁formidable	-11.3539
▁alternate	-11.3539
▁Savage	-11.354
▁adulthood	-11.354
▁whale	-11.354
▁rag	-11.3541
▁Mitch	-11.3542
▁Diary	-11.3543
HarperOne	-11.3548
feld	-11.3552
▁consistently	-11.3552
▁integrated	-11.3553
▁Honey	-11.3559
▁Area	-11.356
▁personally	-11.3564
▁ships	-11.3567
eri	-11.3567
wen	-11.3571
▁Fit	-11.3571
▁Leading	-11.3573
▁qua	-11.3573
▁founded	-11.3574
▁Rule	-11.3574
Neill	-11.3577
Chicken	-11.3578
▁Arch	-11.3584
▁Crown	-11.3585
▁te	-11.3586
▁Rest	-11.3595
▁Furniture	-11.3596
▁Hussein	-11.3596
▁literacy	-11.3596
▁instance	-11.3597
▁earliest	-11.3597
cor	-11.3597
▁diaries	-11.3597
▁prosperity	-11.3597
▁treated	-11.3598
▁pulls	-11.3599
▁Monster	-11.3599
▁Individual	-11.3603
▁Drink	-11.3604
▁keys	-11.3606
▁Mix	-11.3606
▁habitat	-11.3607
▁Adobe	-11.3609
▁Kerry	-11.3612
corn	-11.3613
▁lucky	-11.3616
▁Cass	-11.3616
▁clutter	-11.3616
▁exists	-11.3616
stead	-11.3621
▁Pass	-11.3626
▁Singer	-11.3632
▁mob	-11.3634
inn	-11.3635
Help	-11.3635
Focus	-11.3636
▁aspiring	-11.3637
gard	-11.3638
▁destination	-11.3647
▁Celebration	-11.3647
▁toddler	-11.3647
▁sale	-11.365
▁battlefield	-11.3652
zen	-11.3652
▁diamond	-11.3654
▁thriving	-11.3654
▁Hospital	-11.3654
▁Independence	-11.3654
▁Dobson	-11.3654
▁aggressive	-11.3654
▁whimsical	-11.3654
▁Bathroom	-11.3654
▁Decision	-11.3654
▁Ohio	-11.3654
▁Dutch	-11.3655
▁Cassie	-11.3656
▁1993	-11.3657
▁fled	-11.3658
▁guardian	-11.3659
▁Democrats	-11.366
▁nest	-11.3663
▁prevention	-11.3664
▁carrying	-11.3665
▁improved	-11.3667
lusive	-11.3669
▁Needs	-11.3672
▁Found	-11.3673
▁centers	-11.3676
heart	-11.3679
▁parks	-11.3682
▁speaker	-11.3688
tit	-11.3689
pping	-11.3689
▁adjust	-11.369
▁illuminate	-11.3691
lier	-11.3692
▁worthy	-11.3694
▁Put	-11.3698
▁Move	-11.3698
During	-11.3701
""""	-11.3701
▁element	-11.3706
▁Thank	-11.3709
▁struggled	-11.371
hen	-11.371
▁Solution	-11.3711
▁prejudice	-11.3712
▁kidnapping	-11.3712
▁Customer	-11.3712
▁Meredith	-11.3712
▁intent	-11.3712
▁prosecutor	-11.3714
▁candle	-11.3715
▁fights	-11.3718
▁Treatment	-11.3718
Sam	-11.3719
oid	-11.3726
▁Raven	-11.3726
late	-11.3728
▁Traveler	-11.3729
▁invest	-11.3734
▁pest	-11.3736
▁Gibb	-11.3736
▁Gru	-11.3737
▁Gr	-11.3738
▁Minute	-11.3739
▁lying	-11.3743
▁prepares	-11.3751
Kirkus	-11.3752
▁$16.1	-11.3752
Junie	-11.3753
front	-11.3756
▁Marcia	-11.376
▁readings	-11.3764
▁observation	-11.3766
▁75	-11.3767
ground	-11.3767
▁museums	-11.3767
▁Buddhism	-11.377
▁Eisenhower	-11.377
▁fascination	-11.377
▁junior	-11.377
▁geography	-11.377
▁sneak	-11.377
▁division	-11.377
▁crown	-11.377
▁Terrorism	-11.3772
▁stopped	-11.3773
▁NON	-11.3774
▁DNA	-11.3774
▁Kirk	-11.3775
38	-11.3775
▁Village	-11.3776
outs	-11.3777
▁tears	-11.3778
▁coaches	-11.3783
▁Lock	-11.3783
▁butter	-11.379
▁walked	-11.3796
▁Another	-11.3803
▁fur	-11.3803
▁Goes	-11.381
▁Davidson	-11.381
▁Speak	-11.3811
Richard	-11.3812
makers	-11.3814
▁assume	-11.3814
tag	-11.3819
MA	-11.382
▁absolute	-11.3821
olution	-11.3823
ided	-11.3825
▁resident	-11.3828
▁Montgomery	-11.3828
▁Edith	-11.3828
▁roast	-11.3828
▁silly	-11.3828
▁35,000	-11.383
▁Buckley	-11.383
stop	-11.3831
▁Mead	-11.3831
▁feline	-11.3831
▁Christina	-11.3832
92	-11.3833
▁Saul	-11.3833
Reader	-11.3833
▁prefer	-11.3836
▁heroism	-11.3836
▁hole	-11.3838
▁invited	-11.3838
Big	-11.3843
▁darker	-11.3844
▁campus	-11.3844
▁stretch	-11.385
▁Childrens	-11.3852
▁rent	-11.3853
▁outlaw	-11.3854
▁UNI	-11.3854
▁Fin	-11.3859
AP	-11.386
▁holy	-11.3861
▁candidates	-11.3864
▁Lip	-11.3868
▁Hour	-11.3868
control	-11.3871
Yale	-11.3872
▁existing	-11.3876
▁Juliet	-11.3877
▁fri	-11.3878
▁Carrie	-11.3881
▁23	-11.3887
▁Napoleon	-11.3887
▁Pentagon	-11.3887
▁elaborate	-11.3887
▁incomparable	-11.3887
▁obvious	-11.3887
▁1959	-11.3887
▁draft	-11.3887
▁remarkably	-11.3887
▁pirate	-11.3889
▁Pink	-11.3895
Bra	-11.3901
▁Homer	-11.3903
▁beginnings	-11.3903
▁Kaplan	-11.3906
▁Cuba	-11.3906
inc	-11.3907
▁cops	-11.3907
▁Republicans	-11.3908
▁Cre	-11.3908
▁majority	-11.3912
▁wage	-11.3916
script	-11.3918
roy	-11.392
▁delighted	-11.3922
▁organic	-11.3923
▁gained	-11.3924
▁operate	-11.3927
present	-11.3928
▁beings	-11.393
▁networking	-11.3935
▁Sat	-11.3936
▁Dec	-11.3936
vari	-11.3938
▁Leaders	-11.3943
aid	-11.3943
▁nineteen	-11.3944
▁beer	-11.3944
▁nights	-11.3945
▁(1850-1877)",	-11.3946
▁Chapman	-11.3946
▁Espionage	-11.3946
▁Savannah	-11.3946
▁blockbuster	-11.3946
▁congregation	-11.3946
▁persuade	-11.3946
▁Fifth	-11.3946
▁Wrong	-11.3946
▁adorable	-11.3946
▁ritual	-11.3946
▁Desire	-11.3946
▁palace	-11.3946
▁Cheryl	-11.3947
▁Revell	-11.3947
▁inventor	-11.3948
▁Ellie	-11.3948
ata	-11.3949
▁blackmail	-11.3949
▁Associates	-11.3949
▁snap	-11.3949
▁enthralling	-11.3957
▁Unfortunately	-11.3958
▁Miles	-11.3959
▁affecting	-11.3962
43	-11.3962
▁Stew	-11.3966
▁HI	-11.3971
chette	-11.3971
▁Justin	-11.3972
▁Rosie	-11.3977
▁McGraw	-11.3979
▁Essentials	-11.3981
pic	-11.3982
▁Believe	-11.3983
mental	-11.3985
▁ruled	-11.3988
▁bell	-11.3988
▁Thousand	-11.3994
HE	-11.3995
▁ruins	-11.3999
CLASSIFI	-11.4006
▁rhyming	-11.4006
▁substance	-11.4006
▁swim	-11.4007
▁rivalry	-11.4008
▁crave	-11.4009
Em	-11.4011
▁bug	-11.4012
▁nobody	-11.4012
▁overcoming	-11.4013
▁Explorer	-11.4015
ider	-11.4019
▁comments	-11.4019
▁BOOKS	-11.402
▁beginners	-11.402
▁tip	-11.4021
▁Winnie	-11.4027
▁Cel	-11.4028
▁Sel	-11.4028
▁Exploring	-11.403
lk	-11.4031
zing	-11.4036
83	-11.4038
▁accomplish	-11.4042
▁advance	-11.4048
House	-11.4051
▁Fried	-11.4055
lift	-11.4055
Today	-11.4056
▁wines	-11.4058
ravelogues	-11.4059
▁Sol	-11.4065
▁Abigail	-11.4066
▁agencies	-11.4066
▁album	-11.4066
▁confusing	-11.4066
▁portfolio	-11.4066
▁simplicity	-11.4066
▁woven	-11.4066
▁Turkey	-11.4066
▁guru	-11.4068
▁Weekend	-11.4069
IE	-11.407
▁Watchers	-11.4071
▁refreshing	-11.4072
aud	-11.4072
▁Lifelong	-11.4075
▁wearing	-11.4076
▁backgrounds	-11.4078
▁Poe	-11.4078
▁Ros	-11.4079
Ann	-11.4079
▁Alone	-11.4081
▁beside	-11.4083
only	-11.4084
tus	-11.4086
▁cu	-11.409
▁stocks	-11.4091
▁IS	-11.4092
▁Gardener	-11.4093
▁Accounting	-11.4094
hin	-11.4095
▁heading	-11.4096
eur	-11.4097
Cat	-11.4098
tan	-11.4102
▁Dow	-11.4105
▁Fight	-11.4106
▁Brief	-11.4106
▁beast	-11.4107
▁Teen	-11.411
▁recalls	-11.4111
▁rapid	-11.4112
using	-11.4116
▁tours	-11.412
▁Sar	-11.412
uel	-11.4121
▁reinforce	-11.4121
▁Diamond	-11.4126
▁Natalie	-11.4126
▁gallery	-11.4126
▁myriad	-11.4126
▁$12.5	-11.4127
▁Madeline	-11.4128
▁rescued	-11.4129
▁searing	-11.4129
▁flee	-11.413
▁evokes	-11.413
▁fever	-11.4131
▁layout	-11.4131
▁convenience	-11.4133
▁Corporate	-11.4134
▁diets	-11.4134
▁Flight	-11.4138
Even	-11.414
▁Kra	-11.4143
▁Tur	-11.4144
▁Bug	-11.4152
▁grooming	-11.4153
ogue	-11.4158
▁singing	-11.4166
▁answered	-11.4166
▁Twelve	-11.4171
profile	-11.4171
▁feared	-11.4171
when	-11.4173
dler	-11.4174
▁Ivy	-11.4177
▁Factor	-11.4178
▁outsider	-11.418
AK	-11.4184
▁transcend	-11.4185
▁jewel	-11.4185
▁blossom	-11.4186
▁calendar	-11.4186
▁eBay	-11.4186
▁fantasies	-11.4186
▁cottage	-11.4186
▁cruise	-11.4186
HQN	-11.4186
▁PBS	-11.4187
▁Nicole	-11.4187
▁funeral	-11.4187
▁flourish	-11.4187
▁unimaginable	-11.4187
▁Enough	-11.4187
▁Edwin	-11.4188
ured	-11.4188
▁scandalous	-11.4189
▁terrain	-11.4189
▁1997	-11.4193
▁Mun	-11.4195
▁instinct	-11.4195
▁Leader	-11.42
▁Urban	-11.4201
▁bill	-11.4202
▁strain	-11.4206
▁Jar	-11.421
▁lawn	-11.4212
round	-11.4212
▁tracking	-11.4213
▁Matthews	-11.4215
ans	-11.4215
▁rid	-11.4217
ima	-11.4218
dig	-11.422
Su	-11.4221
called	-11.4221
▁Parks	-11.4222
▁consist	-11.4222
▁wits	-11.4223
▁Map	-11.4225
▁separated	-11.423
▁perfection	-11.4233
Featuring	-11.4233
▁nuts	-11.4235
written	-11.4245
▁Anatomy	-11.4247
▁happier	-11.4247
▁instrument	-11.4247
▁liberty	-11.4247
▁Cambridge	-11.4248
▁gym	-11.4248
▁originally	-11.4248
▁Derek	-11.4248
▁idyllic	-11.4248
▁Dillon	-11.4249
books	-11.425
▁cabin	-11.4252
▁Keeping	-11.4253
▁35	-11.4253
▁muscle	-11.4255
▁colleague	-11.4255
▁hardship	-11.4255
▁Grave	-11.4256
active	-11.4256
▁Wa	-11.4262
▁Shore	-11.4262
▁menopause	-11.4266
▁bike	-11.4269
▁potentially	-11.427
▁novelists	-11.4271
▁collecting	-11.4272
▁Mai	-11.4274
▁altered	-11.4284
lover	-11.4284
▁mat	-11.4287
your	-11.4287
▁hook	-11.4288
▁religions	-11.429
▁Safe	-11.4291
▁compromise	-11.4294
▁integrate	-11.4294
yourself	-11.4295
▁grim	-11.4296
▁Lind	-11.4298
NE	-11.4299
▁Gla	-11.4308
▁Minnesota	-11.4309
▁analyses	-11.4309
▁district	-11.4309
▁medium	-11.4309
▁sequence	-11.4309
▁Agency	-11.4309
▁cheap	-11.4309
show	-11.431
▁Balance	-11.4311
ui	-11.4312
Hermes	-11.4313
▁underworld	-11.4314
▁Ink	-11.4317
▁Ye	-11.4319
▁handful	-11.432
▁grill	-11.4321
▁renewed	-11.4326
▁dynamics	-11.4326
▁wanting	-11.4327
▁Andre	-11.4328
▁Butler	-11.4329
▁Dora	-11.4332
mates	-11.4332
▁Marion	-11.4333
▁Glen	-11.4333
▁Kal	-11.4334
▁treating	-11.4338
▁Fre	-11.4339
▁Buy	-11.434
▁intentions	-11.4341
hour	-11.4341
Start	-11.4342
EE	-11.4343
▁instantly	-11.4343
▁Shan	-11.4344
▁Brett	-11.435
▁specialist	-11.4354
▁lion	-11.4354
▁Moss	-11.4356
Wesley	-11.4357
▁cooker	-11.4358
Mark	-11.4359
▁sweep	-11.4359
▁Feelings	-11.4362
▁profits	-11.4364
▁row	-11.4367
▁interact	-11.4368
haired	-11.4368
▁tackles	-11.4369
▁Committee	-11.4371
▁Miriam	-11.4371
▁closing	-11.4371
▁excellence	-11.4371
▁composition	-11.4371
▁gospel	-11.4371
▁Barrett	-11.4371
▁tide	-11.4371
▁Improvement	-11.4372
▁Ridge	-11.4372
▁Venus	-11.4373
▁Walking	-11.4374
▁trend	-11.4374
▁bare	-11.4375
ERS	-11.4376
▁shut	-11.4376
▁bedtime	-11.4376
▁graceful	-11.4376
▁Johnston	-11.4377
▁clubs	-11.4377
▁Auto	-11.4377
migr	-11.4377
▁1991	-11.4378
▁exploit	-11.4382
Hello	-11.4382
▁bid	-11.4383
serve	-11.4386
▁Papa	-11.439
▁continents	-11.4397
along	-11.4398
such	-11.4399
▁Bla	-11.4401
▁diplomat	-11.4405
▁Chang	-11.4407
▁Kristin	-11.4408
▁landscapes	-11.4409
▁enlist	-11.4412
▁Chip	-11.4416
▁lake	-11.4416
Library	-11.442
▁Express	-11.442
▁entered	-11.442
dell	-11.4425
▁Aging	-11.4427
▁relative	-11.4428
▁refuse	-11.443
▁argue	-11.443
powered	-11.4433
▁participate	-11.4433
▁secular	-11.4433
▁subsequent	-11.4433
▁Judge	-11.4433
Silhouette	-11.4433
▁Folk	-11.4433
▁workings	-11.4434
▁Type	-11.4435
▁thus	-11.4435
▁vice	-11.4437
IP	-11.4437
hart	-11.4438
▁lend	-11.4439
▁Korean	-11.444
▁investments	-11.444
▁1989	-11.444
▁Ran	-11.4441
Mc	-11.4442
▁MI	-11.4443
▁chi	-11.4445
▁enlightening	-11.4445
▁Hunting	-11.4447
▁antique	-11.4447
▁Manager	-11.4447
▁admired	-11.4447
lop	-11.4447
▁awaits	-11.4456
ugg	-11.4456
▁Almost	-11.446
▁depicts	-11.4465
izer	-11.4465
▁reporters	-11.4469
▁remaining	-11.4469
▁lord	-11.4472
NY	-11.4472
▁outline	-11.4473
▁Large	-11.4474
iel	-11.4474
self	-11.448
▁knit	-11.448
James	-11.4483
Everyone	-11.4486
▁vitamins	-11.4487
▁dose	-11.4488
▁2:	-11.4495
▁comparison	-11.4495
▁injuries	-11.4495
Picador	-11.4495
▁Cecil	-11.4495
▁Grammar	-11.4495
▁Robbins	-11.4496
Beacon	-11.4496
▁Profit	-11.4496
▁unhappy	-11.4496
▁behavioral	-11.4497
erie	-11.4497
▁Rising	-11.4498
▁establishment	-11.4499
▁Michaels	-11.45
▁manages	-11.4501
▁workbook	-11.4502
▁Memories	-11.4504
▁(18	-11.4504
▁Lieutenant	-11.4504
cht	-11.4505
▁influenced	-11.4505
hm	-11.4506
▁Hundred	-11.4509
▁Arabia	-11.451
▁objective	-11.4511
sight	-11.4513
▁Stages	-11.4513
▁arrested	-11.4514
▁raises	-11.4514
▁Spell	-11.4514
USA	-11.4515
nine	-11.4522
▁$5.0	-11.4526
▁Lama	-11.4529
▁Dunn	-11.453
▁Voice	-11.4532
bridge	-11.4533
vor	-11.4533
▁expressions	-11.4539
▁Wish	-11.4542
71	-11.4542
▁Jen	-11.4546
▁Bran	-11.4546
▁tail	-11.4549
▁Million	-11.4549
Luc	-11.455
burger	-11.4551
▁Banks	-11.4553
▁auto	-11.4555
▁Fan	-11.4555
▁Fort	-11.4556
▁Fly	-11.4558
▁Koontz	-11.4558
▁Melanie	-11.4558
▁capturing	-11.4558
▁compilation	-11.4558
▁dancing	-11.4558
▁rebellion	-11.4558
▁supreme	-11.4558
▁injury	-11.4558
▁Frost	-11.4558
▁weird	-11.4558
▁Shelley	-11.4559
▁fancy	-11.4559
▁definitely	-11.4561
▁Wildlife	-11.4561
▁Riley	-11.4563
▁Yard	-11.4564
▁Marx	-11.4564
ators	-11.4567
▁Fabulous	-11.457
▁evaluation	-11.4572
▁occur	-11.4572
▁Vegetables	-11.4574
pack	-11.4574
▁Grill	-11.4574
▁Simply	-11.4575
VI	-11.4579
▁dashing	-11.458
▁4)	-11.4585
▁Beer	-11.4586
stock	-11.4591
▁plunges	-11.4598
▁Kan	-11.4598
▁recall	-11.4605
▁Dee	-11.4607
Winner	-11.4611
▁belongs	-11.4612
▁ego	-11.4614
▁confronting	-11.4615
▁neck	-11.4616
▁Dell	-11.4617
▁Random	-11.4618
.""""	-11.4618
▁Birth	-11.462
▁Object	-11.4621
▁inimitable	-11.4621
▁rebellious	-11.4621
▁random	-11.4622
▁SEAL	-11.4622
▁satire	-11.4622
▁trading	-11.4622
▁Freud	-11.4622
▁underlying	-11.4622
burg	-11.4623
▁Exam	-11.4624
▁duck	-11.4625
▁journals	-11.4626
▁reported	-11.4627
▁Keller	-11.4628
▁tangled	-11.4628
▁Dangerous	-11.4632
▁Sell	-11.4632
▁Nations	-11.4635
▁Wonderful	-11.4635
▁entrepreneur	-11.4637
▁proposal	-11.4638
col	-11.4639
▁#2	-11.4639
▁kindness	-11.4643
TV	-11.4643
ille	-11.4643
▁Elliott	-11.4644
▁Era	-11.4652
mini	-11.4653
▁eagerly	-11.4654
NG	-11.4664
▁Egg	-11.4664
▁Lynne	-11.4664
▁admire	-11.4672
renowned	-11.4674
▁businessman	-11.4675
▁Changing	-11.4675
▁Away	-11.4679
▁rhymes	-11.4681
▁Les	-11.4681
▁Pig	-11.4682
▁minor	-11.4683
▁waves	-11.4684
▁Strategic	-11.4685
▁abortion	-11.4685
▁ceremony	-11.4685
▁expense	-11.4685
▁submarine	-11.4685
▁Lizzie	-11.4685
▁mainstream	-11.4685
▁Lindsey	-11.4685
▁Message	-11.4686
▁blog	-11.4686
▁windows	-11.4687
▁Shock	-11.4687
▁Laugh	-11.4687
▁Frog	-11.4688
▁weaknesses	-11.4688
▁Kellerman	-11.4689
▁astounding	-11.4691
▁Presidential	-11.4691
▁Joanne	-11.4691
▁Odyssey	-11.4694
▁Doris	-11.4695
▁mankind	-11.4698
Work	-11.4703
▁Wealth	-11.4704
▁Nan	-11.4704
▁Tall	-11.4707
▁medications	-11.4707
flower	-11.4708
▁foe	-11.4709
▁sheer	-11.471
▁paying	-11.4711
bur	-11.4712
▁1:	-11.4713
smith	-11.4715
▁Bow	-11.4715
▁pursued	-11.4715
▁Mothers	-11.4715
▁ST	-11.472
▁conducted	-11.4722
▁makeup	-11.4723
▁Jacobs	-11.4724
▁Wilder	-11.4738
▁MO	-11.4744
▁Oil	-11.4745
▁Atlanta	-11.4749
▁Avenue	-11.4749
▁Caesar	-11.4749
▁dignity	-11.4749
▁concert	-11.4749
▁isolation	-11.4749
▁throws	-11.4749
▁correspondence	-11.4749
▁ugly	-11.475
▁Landscape	-11.475
▁excerpts	-11.475
oz	-11.475
▁nationwide	-11.475
▁DO	-11.4751
▁Becoming	-11.4751
▁Monte	-11.4752
▁gray	-11.4752
▁nightmares	-11.4752
▁laid	-11.4754
▁spite	-11.4755
▁$8.0	-11.4756
▁watercolor	-11.4756
▁Ginger	-11.4756
75	-11.4759
▁rendered	-11.476
▁portion	-11.4763
▁ancestors	-11.4765
▁Visit	-11.4767
▁dilemmas	-11.4767
yne	-11.4767
▁Character	-11.4768
▁secretary	-11.4769
eating	-11.477
▁limit	-11.4771
▁Funny	-11.4772
▁Sure	-11.4776
”—	-11.4776
▁scholarly	-11.4779
▁IP	-11.4781
▁obtain	-11.4783
▁anticipated	-11.4784
▁Lonely	-11.4785
▁Patch	-11.4786
▁zoo	-11.4788
▁Pip	-11.4789
▁Rub	-11.479
▁Shadows	-11.4791
▁summon	-11.4792
▁Er	-11.4797
dding	-11.4799
rest	-11.4812
turn	-11.4812
▁125	-11.4813
▁roof	-11.4814
▁Different	-11.4814
▁baffling	-11.4814
▁pursuing	-11.4814
▁unconventional	-11.4814
▁volatile	-11.4814
PublicAffairs	-11.4814
▁steel	-11.4814
aka	-11.4814
▁zero	-11.4814
▁inheritance	-11.4814
▁Diego	-11.4815
reaching	-11.4817
▁Jude	-11.482
▁Pilgrim	-11.4821
lines	-11.4821
▁dietary	-11.4821
▁habit	-11.4823
▁Communist	-11.4823
▁scratch	-11.4824
▁theft	-11.4829
▁frustration	-11.4836
▁wheel	-11.4837
▁Raise	-11.4839
▁regarded	-11.4839
▁plate	-11.484
▁cub	-11.4847
▁Hi	-11.485
▁intensely	-11.4857
▁compare	-11.4865
▁Wolfe	-11.4867
14	-11.4867
▁Myers	-11.4867
historic	-11.4868
Year	-11.487
Jane	-11.4873
Teen	-11.4874
ask	-11.4876
▁Audrey	-11.4879
▁Mediterranean	-11.4879
▁1957	-11.4879
▁Alzheimer	-11.4879
▁Hemingway	-11.4879
▁prophecy	-11.4879
▁conflicting	-11.4879
▁Commission	-11.4879
▁Travis	-11.4879
▁Davies	-11.4879
▁LA	-11.488
▁quit	-11.488
▁Virgin	-11.488
solving	-11.4881
▁spelling	-11.4881
▁melt	-11.4884
IM	-11.4886
▁Swan	-11.4886
Per	-11.4887
Mari	-11.4888
parent	-11.4889
▁morality	-11.489
▁contribute	-11.4892
▁refer	-11.4893
lag	-11.4894
▁Heroes	-11.4899
▁sauce	-11.4902
▁tribe	-11.4903
▁folks	-11.4903
▁Perhaps	-11.4906
▁Grilling	-11.491
market	-11.4911
▁Account	-11.4913
flow	-11.4913
War	-11.4914
▁Rud	-11.4918
▁remembers	-11.492
▁1960",	-11.4925
▁Wilde	-11.4925
▁Andrews	-11.4927
▁Oak	-11.4929
▁RE	-11.493
▁attacked	-11.4932
while	-11.4933
Eyewitness	-11.4934
▁heights	-11.4938
▁Rei	-11.4939
▁fable	-11.4942
▁immune	-11.4944
▁paradise	-11.4944
▁upheaval	-11.4944
▁compiled	-11.4944
▁Seuss	-11.4944
▁McCain	-11.4945
▁thick	-11.4945
▁championship	-11.4945
▁Moses	-11.4945
▁Logan	-11.4946
▁humble	-11.4946
▁Bedtime	-11.4946
zu	-11.4947
▁globalization	-11.4947
▁verses	-11.4948
▁30,000	-11.4949
bat	-11.4949
itive	-11.4949
▁Ki	-11.495
▁Nash	-11.4951
yard	-11.4951
▁Busy	-11.4954
▁anymore	-11.4955
▁Grandma	-11.4955
▁Coleman	-11.4957
▁rabbit	-11.4957
ancy	-11.4957
agh	-11.4958
▁2009	-11.496
▁effectiveness	-11.496
▁Branch	-11.496
▁civilian	-11.4961
▁specially	-11.4961
▁Cu	-11.4966
▁seventh	-11.4966
▁Organized	-11.4969
▁Der	-11.4969
gotten	-11.4969
▁Fifty	-11.497
▁flame	-11.4971
main	-11.4973
▁homework	-11.4973
▁forge	-11.4974
▁buildings	-11.4976
▁Deb	-11.4978
▁yearning	-11.498
▁Carole	-11.4985
▁350	-11.4987
▁novella	-11.4988
▁Sil	-11.4996
▁Inner	-11.4996
▁defines	-11.4998
▁Lea	-11.5
Smithsonian	-11.5
Review	-11.5001
▁Eyes	-11.5003
won	-11.5006
ault	-11.5008
▁Expect	-11.5009
▁Edmund	-11.501
▁Gibson	-11.501
▁snake	-11.501
▁unsolved	-11.501
▁Cindy	-11.501
▁adviser	-11.501
▁Therapy	-11.501
▁BESTSELLER	-11.501
▁Canyon	-11.501
▁cowboy	-11.501
▁crystal	-11.501
▁Genius	-11.501
▁Vermont	-11.501
▁Dist	-11.501
▁invented	-11.501
▁archives	-11.501
▁Fen	-11.5011
▁punishment	-11.5011
▁Eddie	-11.5011
▁Motherhood	-11.5011
▁Sub	-11.5012
▁Broken	-11.5013
▁efficient	-11.5013
▁marine	-11.5016
▁compulsive	-11.5021
▁Guild	-11.5023
▁essentials	-11.5025
▁Wizard	-11.5027
▁plantation	-11.5027
▁privileged	-11.5027
▁inherited	-11.5028
▁sum	-11.5029
▁Mills	-11.5031
▁Keys	-11.5044
▁shoulder	-11.5046
▁vampires	-11.5047
▁tune	-11.5047
hoe	-11.5052
▁detectives	-11.5053
▁periods	-11.5054
fast	-11.5057
▁corners	-11.5058
Inside	-11.5059
temp	-11.5061
headed	-11.5062
▁radically	-11.5063
▁Spi	-11.5063
rock	-11.5067
driven	-11.5067
▁Gates	-11.5067
Hand	-11.5068
▁sheep	-11.507
▁helpless	-11.5072
inter	-11.5075
▁delivered	-11.5075
▁Illinois	-11.5076
▁arthritis	-11.5076
▁mercy	-11.5076
▁niece	-11.5076
▁kitten	-11.5076
▁playwright	-11.5077
▁robot	-11.5077
▁anchor	-11.5077
▁Wagner	-11.5077
▁coauthor	-11.5078
close	-11.5078
▁devastated	-11.5079
▁prisoner	-11.508
▁Wick	-11.5081
then	-11.5081
Recount	-11.5082
▁arena	-11.5082
▁dinners	-11.5082
▁Trans	-11.5086
▁homemade	-11.5088
▁importantly	-11.5088
▁cares	-11.5088
▁surround	-11.509
▁eve	-11.509
▁Thought	-11.509
.""-	-11.5091
66	-11.5091
▁Ivan	-11.5093
▁insists	-11.5094
▁Productions	-11.5101
▁Belle	-11.5102
▁phrase	-11.5105
▁Bass	-11.5108
▁Bin	-11.511
▁Mir	-11.5112
▁Spa	-11.5114
▁Teachers	-11.5117
keeping	-11.5122
▁arrangements	-11.5127
▁accompanying	-11.5132
▁broker	-11.5133
▁mono	-11.5133
Easy	-11.5134
▁deserve	-11.5135
▁Kurt	-11.5142
smart	-11.5142
▁chose	-11.5142
▁Ambrose	-11.5143
▁Evolution	-11.5143
▁Restaurant	-11.5143
▁Tennessee	-11.5143
▁collision	-11.5143
▁epidemic	-11.5143
▁harvest	-11.5143
▁incredibly	-11.5143
▁perceptive	-11.5143
▁receiving	-11.5143
▁remedies	-11.5143
▁sensitivity	-11.5143
▁worried	-11.5143
▁cultivate	-11.5143
▁telephone	-11.5143
▁Chandler	-11.5143
▁sculpture	-11.5143
▁bent	-11.5144
▁compact	-11.5144
▁Cherry	-11.5145
ois	-11.5147
▁massage	-11.5148
▁Clive	-11.5149
shaw	-11.5149
▁lens	-11.5149
▁Tools	-11.5149
▁tele	-11.515
▁behaviors	-11.515
▁Online	-11.5151
▁$14.9	-11.5152
▁evolved	-11.5153
▁jealousy	-11.5153
▁Randy	-11.5153
▁Tough	-11.5153
▁sessions	-11.5156
▁rank	-11.5157
▁fabled	-11.5158
▁Mau	-11.5158
▁gal	-11.5159
▁solar	-11.5161
TION	-11.5163
▁Oh	-11.5164
▁columns	-11.5167
▁Features	-11.5172
centered	-11.5179
▁Songs	-11.5181
▁Breaking	-11.5182
▁notion	-11.5184
▁Princeton	-11.5192
▁homeless	-11.5193
▁Gross	-11.5194
▁jealous	-11.5199
order	-11.5203
umble	-11.5207
▁ADULT	-11.521
▁disrupt	-11.521
▁Buddhist	-11.521
▁Fletcher	-11.521
▁Knowledge	-11.521
▁Pakistan	-11.521
▁Shrimp	-11.521
▁catastrophe	-11.521
▁circus	-11.521
▁collaboration	-11.521
▁Houston	-11.521
▁harmony	-11.521
▁picnic	-11.521
▁tapestry	-11.521
▁spectrum	-11.521
▁MacDonald	-11.521
▁Mont	-11.521
▁sworn	-11.521
▁marketplace	-11.5211
dor	-11.5212
▁Elvis	-11.5212
▁Odd	-11.5213
▁alcoholic	-11.5213
▁Bacon	-11.5213
▁Gallery	-11.5213
▁excited	-11.5213
▁ruler	-11.5213
▁sector	-11.5214
▁adapted	-11.5216
▁Rubin	-11.5217
▁Enter	-11.5219
▁Salt	-11.522
▁Bound	-11.5221
▁Michele	-11.5222
▁blocks	-11.5223
Dial	-11.5225
sser	-11.5233
▁Unlike	-11.5236
▁pays	-11.5238
chan	-11.524
▁incident	-11.5242
une	-11.5244
▁grass	-11.5244
Times	-11.5245
32	-11.5247
pu	-11.5249
Gra	-11.5249
▁researchers	-11.5251
▁Mission	-11.5253
▁Highland	-11.5255
▁performed	-11.5256
▁fare	-11.5258
ude	-11.526
▁doubts	-11.526
▁accounting	-11.5261
▁devote	-11.5263
▁components	-11.5263
BY	-11.5264
▁shower	-11.5266
▁losses	-11.5269
Perennial	-11.527
isms	-11.527
▁Rad	-11.5271
▁grab	-11.5272
cro	-11.5276
▁Southwest	-11.5277
▁Analysis	-11.5277
▁Oklahoma	-11.5277
▁Sheldon	-11.5277
▁appendix	-11.5277
▁bought	-11.5277
▁iPod	-11.5277
▁Emotional	-11.5277
▁injured	-11.5277
▁frantic	-11.5277
▁Shannon	-11.5277
▁Fiona	-11.5278
▁targeted	-11.5278
▁midnight	-11.5278
gh	-11.5279
▁quietly	-11.5281
▁Civilization	-11.5282
▁$7.7	-11.5283
letting	-11.5284
ipp	-11.5284
▁Newman	-11.5284
shore	-11.5286
tie	-11.5286
▁mount	-11.5289
▁fastest	-11.5291
▁Later	-11.5291
▁Cast	-11.5292
▁chill	-11.5293
▁controlling	-11.5294
▁Abuse	-11.5296
▁workout	-11.5296
▁Develop	-11.5297
▁Ent	-11.5297
card	-11.5297
▁apparently	-11.5298
▁Stranger	-11.5301
▁Grey	-11.5307
aro	-11.5308
Looks	-11.5309
▁dinosaur	-11.5312
bing	-11.5315
pol	-11.5316
▁supported	-11.5319
▁Qua	-11.5322
▁Sometimes	-11.5324
▁Meaning	-11.5325
▁demon	-11.5328
▁11,	-11.533
Sea	-11.5334
▁Fool	-11.5336
▁Kris	-11.5336
▁politically	-11.5337
ohn	-11.5342
llo	-11.5343
Com	-11.5343
blooded	-11.5345
▁Beau	-11.5345
▁splendid	-11.5345
▁NFL	-11.5345
▁Positive	-11.5345
▁feisty	-11.5345
▁sanity	-11.5345
HMH	-11.5345
▁Occasion	-11.5345
Decorative	-11.5345
▁emergence	-11.5346
▁Sidney	-11.5346
▁Proven	-11.5346
▁unspeakable	-11.5346
▁representative	-11.5346
▁Silent	-11.5347
▁pirates	-11.5347
▁criminals	-11.5347
▁plotting	-11.5352
▁assembled	-11.5355
▁Marty	-11.5356
▁statements	-11.5359
scape	-11.5361
▁Powerful	-11.5361
▁betrayed	-11.5365
ils	-11.5366
▁Commander	-11.5371
▁approaching	-11.5374
▁Across	-11.5374
ATION	-11.5375
▁prep	-11.5377
bach	-11.5377
▁delivery	-11.5378
▁wolf	-11.5379
▁intention	-11.5379
▁Critical	-11.5384
▁Skin	-11.5388
rice	-11.5391
▁entrepreneurs	-11.5395
▁spoken	-11.5396
▁exploits	-11.54
▁Fact	-11.5404
▁2)	-11.5405
OM	-11.5405
▁performing	-11.5411
▁Madeleine	-11.5414
▁practicing	-11.5414
▁societies	-11.5414
▁summaries	-11.5414
▁yield	-11.5414
▁verge	-11.5414
▁Irene	-11.5414
▁traits	-11.5414
▁airplane	-11.5414
▁Webb	-11.5415
▁uncanny	-11.5416
▁transportation	-11.5416
▁Yes	-11.5416
▁Become	-11.5416
▁Evil	-11.5417
arch	-11.5417
▁tense	-11.542
owski	-11.5421
▁Movement	-11.5421
▁enchanted	-11.5425
▁proportions	-11.5426
▁Shu	-11.5427
▁secretive	-11.544
▁Meat	-11.5441
turner	-11.5443
▁hearty	-11.5444
▁Casey	-11.545
▁famed	-11.5452
▁groom	-11.5454
▁tank	-11.5454
▁Fer	-11.5458
17	-11.5458
Prima	-11.5461
▁Radio	-11.5465
▁ignite	-11.5467
proof	-11.5468
Collins	-11.5475
▁listings	-11.5475
▁disasters	-11.5475
starred	-11.5478
▁occasional	-11.5481
▁terrified	-11.5483
▁Phrase	-11.5483
▁freak	-11.5483
▁lovable	-11.5483
▁solace	-11.5483
▁Fruit	-11.5483
Kingfisher	-11.5483
▁milk	-11.5483
▁priorities	-11.5483
▁Engine	-11.5484
▁Protection	-11.5485
▁syndicated	-11.5485
▁delightfully	-11.5485
▁Jessie	-11.5485
▁sketches	-11.5486
▁chest	-11.5488
▁Fleming	-11.5489
▁logical	-11.5489
▁mold	-11.5489
▁Malone	-11.549
mother	-11.549
▁assets	-11.549
▁Jacques	-11.5492
loving	-11.5492
▁Samantha	-11.5494
▁Dunne	-11.5494
▁Lau	-11.5495
▁Shape	-11.5497
▁rates	-11.5497
▁2001,	-11.5498
▁Bone	-11.5498
rink	-11.5502
▁wherever	-11.5504
lain	-11.5512
▁Coach	-11.5512
chy	-11.5513
▁CH	-11.5515
▁comm	-11.5518
▁hormones	-11.5519
▁Dem	-11.5519
AND	-11.552
▁probes	-11.5523
wyn	-11.5523
▁unleash	-11.5524
▁wondered	-11.5524
▁Wit	-11.5526
▁Palm	-11.5534
bet	-11.5537
▁Ter	-11.5539
RH	-11.5539
▁Jess	-11.5541
hot	-11.5545
Moody	-11.5546
Fleming	-11.5546
Avery	-11.5546
▁perils	-11.5547
▁Fr	-11.5551
▁Canadian	-11.5552
▁Marjorie	-11.5552
▁Monroe	-11.5552
▁Rinehart	-11.5552
▁identified	-11.5552
▁imperial	-11.5552
▁industries	-11.5552
▁mortgage	-11.5552
▁prevail	-11.5552
▁reassuring	-11.5552
▁Companies	-11.5552
▁combining	-11.5552
▁concentrate	-11.5552
▁flesh	-11.5552
▁swimming	-11.5552
▁Worst	-11.5552
▁Solomon	-11.5552
▁nerve	-11.5553
mun	-11.5553
▁switch	-11.5553
▁modest	-11.5557
▁Person	-11.5557
▁renewal	-11.5557
holder	-11.556
▁corn	-11.5562
andra	-11.5562
▁routines	-11.5564
▁McCall	-11.5567
▁Sho	-11.5569
ATE	-11.5572
▁Junie	-11.5573
▁claimed	-11.5575
▁doll	-11.5578
▁Round	-11.5578
77	-11.558
▁peers	-11.558
▁shore	-11.5581
▁button	-11.5583
▁Wade	-11.5586
▁Anyone	-11.5587
lice	-11.5587
▁deserves	-11.5589
▁reflecting	-11.559
▁counseling	-11.5591
▁dust	-11.56
▁Values	-11.5601
▁coin	-11.5604
▁Matter	-11.5605
▁translations	-11.5608
▁consistent	-11.5608
cultural	-11.561
▁exhibit	-11.5612
▁Beard	-11.5612
▁Lifetime	-11.5612
Leisure	-11.5617
Paperback	-11.5617
Twenty	-11.5617
Business	-11.5617
quire	-11.5621
▁Cinderella	-11.5622
▁Cussler	-11.5622
▁Perspective	-11.5622
▁Statistics	-11.5622
▁expansion	-11.5622
▁irrepressible	-11.5622
▁rhetoric	-11.5622
▁worries	-11.5622
▁Crusade	-11.5622
▁golfer	-11.5623
OS	-11.5623
▁Scarry	-11.5624
▁documentary	-11.5624
▁sandwiches	-11.5624
EST	-11.5636
▁battl	-11.5637
▁Alvin	-11.5639
▁camps	-11.564
▁bon	-11.564
▁Demon	-11.5643
▁Classical	-11.5643
▁Dear	-11.5649
fold	-11.5652
▁spans	-11.5653
agan	-11.5653
▁gathers	-11.5658
ART	-11.5664
▁schemes	-11.5665
▁Lei	-11.5665
▁regimen	-11.5669
▁interaction	-11.5669
▁weigh	-11.5671
▁Affairs	-11.5671
mph	-11.5673
▁await	-11.5674
▁Treasures	-11.5675
▁Lance	-11.5676
▁immense	-11.5677
▁unite	-11.5679
ava	-11.568
▁missed	-11.5686
42	-11.5687
Welcome	-11.5688
Secret	-11.5688
Alex	-11.5689
lac	-11.5691
▁greatness	-11.5691
▁$19.9	-11.5691
know	-11.5692
▁Buchanan	-11.5693
▁Divorce	-11.5693
▁Sebastian	-11.5693
▁adventurous	-11.5693
▁allergies	-11.5693
▁bounty	-11.5693
▁experiencing	-11.5693
▁gruesome	-11.5693
▁integration	-11.5693
▁persuasive	-11.5693
▁sensuous	-11.5693
▁skeleton	-11.5693
▁Eileen	-11.5693
▁poised	-11.5693
Regnery	-11.5693
▁Garrison	-11.5693
▁seminar	-11.5693
▁Eliot	-11.5693
▁balloon	-11.5693
▁knitting	-11.5694
▁scrapbook	-11.5694
▁psyche	-11.5697
▁1900	-11.5697
▁Lists	-11.5698
▁Laden	-11.5698
LBR	-11.5699
▁elections	-11.5699
▁directed	-11.5699
▁Ranger	-11.5701
▁descend	-11.5703
▁luminous	-11.5705
▁halls	-11.571
▁Unit	-11.5719
▁pill	-11.5719
▁Strips	-11.5719
mine	-11.5721
▁settled	-11.5724
▁Noel	-11.5726
▁Doll	-11.573
▁Forces	-11.5731
▁orphaned	-11.5732
▁bin	-11.5735
▁hunters	-11.5739
leigh	-11.5741
▁inhabit	-11.5741
▁Celebrate	-11.5741
▁characteristic	-11.5743
▁Mae	-11.5745
▁Operat	-11.5746
▁precise	-11.5748
▁grades	-11.5749
▁antiques	-11.575
▁Bud	-11.575
▁Henri	-11.5753
cio	-11.5759
volume	-11.5759
December	-11.5759
comb	-11.576
▁Neal	-11.576
▁trauma	-11.5762
▁Baghdad	-11.5763
▁Updike	-11.5763
▁gourmet	-11.5763
▁reproduction	-11.5763
▁anxious	-11.5764
▁nourish	-11.5764
▁Lillian	-11.5764
Suggest	-11.5764
▁Blind	-11.5764
▁Mental	-11.5764
deologies	-11.5764
▁properties	-11.5765
▁elementary	-11.5765
▁joyous	-11.577
▁rice	-11.5771
04	-11.5775
▁Monthly	-11.5775
85	-11.5776
▁Stand	-11.5777
Magic	-11.5778
▁adaptation	-11.5779
▁motivated	-11.5782
▁Reach	-11.5782
▁Milo	-11.579
▁richness	-11.579
▁ignored	-11.5791
▁Yale	-11.5791
wig	-11.5792
▁Qui	-11.5795
▁fired	-11.58
▁WA	-11.5811
▁orders	-11.5812
▁uncovered	-11.5812
▁Styles	-11.5812
▁perception	-11.5812
▁reaction	-11.5817
create	-11.5817
▁foundations	-11.5818
▁Sim	-11.5822
▁Sid	-11.5824
▁Choices	-11.583
▁develops	-11.5831
▁chic	-11.5834
▁Ordinary	-11.5835
▁strict	-11.5835
▁testimony	-11.5835
▁competing	-11.5835
▁teeth	-11.5835
▁curtain	-11.5835
▁Classroom	-11.5835
▁Dublin	-11.5836
▁labels	-11.5838
▁Orange	-11.5839
spirited	-11.584
▁basement	-11.584
Howard	-11.5841
▁jam	-11.5841
▁Cloud	-11.5841
▁savings	-11.5842
▁Disorders	-11.5844
▁Falls	-11.5845
▁Seasonal	-11.5846
▁prospects	-11.5849
▁charges	-11.585
▁awakening	-11.5854
rench	-11.5856
▁dressing	-11.5856
▁Cher	-11.586
▁reluctantly	-11.5865
▁chat	-11.5867
▁employ	-11.5868
▁Plays	-11.5872
AGE	-11.5872
▁observe	-11.5873
direct	-11.5876
▁react	-11.5876
▁texture	-11.5877
▁rev	-11.5879
ummy	-11.5882
▁poll	-11.5883
▁mastery	-11.5885
▁invention	-11.5885
▁accus	-11.5886
high	-11.5888
▁Eva	-11.589
door	-11.589
eman	-11.5891
Real	-11.5896
▁highway	-11.5896
dam	-11.59
etta	-11.5901
atic	-11.5903
needed	-11.5905
Week	-11.5905
▁Electronic	-11.5907
▁impulse	-11.5907
▁mathematical	-11.5907
Esteem	-11.5907
▁protein	-11.5907
▁substantial	-11.5907
▁Examination	-11.5907
▁Gould	-11.5907
▁Interview	-11.5907
▁nursery	-11.591
▁Byron	-11.591
▁profitable	-11.5911
▁Mercer	-11.5914
▁lightning	-11.5914
▁seventeenth	-11.5914
▁toilet	-11.5915
▁pretend	-11.5917
▁$5	-11.5919
▁Scho	-11.5921
▁lit	-11.5925
▁2010	-11.5925
▁Kerr	-11.5926
▁Legend	-11.5926
▁nun	-11.5927
▁Access	-11.5928
handed	-11.5929
▁functional	-11.593
▁Quality	-11.5931
▁scandals	-11.5931
▁surveys	-11.5934
▁pushed	-11.5936
▁makers	-11.5938
▁Inspired	-11.594
Top	-11.5944
▁Helping	-11.5944
▁Capital	-11.5946
▁roller	-11.5947
▁Clinic	-11.5948
urn	-11.5954
Design	-11.5956
▁Thunder	-11.5956
▁horrors	-11.5956
▁dilemma	-11.596
▁missions	-11.5962
Ideals	-11.5967
pes	-11.5968
luck	-11.597
▁Burn	-11.5971
mouth	-11.5978
▁critique	-11.5979
▁curriculum	-11.5979
▁horrible	-11.5979
▁metaphor	-11.5979
▁troubling	-11.5979
▁unwanted	-11.5979
▁Husband	-11.5979
▁Narnia	-11.5979
▁racism	-11.5979
▁versus	-11.5979
▁ultra	-11.5979
Bloomsbury	-11.5979
▁steer	-11.5979
▁Bernstein	-11.598
▁Fraser	-11.598
▁Cornwell	-11.598
▁monkey	-11.598
▁polar	-11.598
▁1920	-11.598
Thames	-11.598
▁Birthday	-11.598
▁1941	-11.5982
oth	-11.5983
▁Lucky	-11.5986
▁bombing	-11.5987
▁understands	-11.5988
▁controlled	-11.5988
▁Islands	-11.5989
▁Hearts	-11.5992
▁captivated	-11.5992
▁precisely	-11.5995
▁naturally	-11.5995
▁Dante	-11.5996
Storey	-11.5996
▁gut	-11.5998
▁refused	-11.5999
▁Discovering	-11.6
▁hyper	-11.6002
▁Brady	-11.6003
rating	-11.6003
▁Fame	-11.6004
▁addressing	-11.6006
▁Onion	-11.601
▁Determined	-11.6011
▁dimension	-11.6011
▁spaces	-11.6012
▁Richardson	-11.6012
▁attracted	-11.6014
▁suggested	-11.6016
▁Barbie	-11.6021
...""	-11.6026
▁classmates	-11.6027
▁Cove	-11.603
▁distinguish	-11.603
▁DC	-11.6031
▁tomb	-11.6032
▁Evan	-11.6034
▁Investments	-11.6035
▁Lean	-11.6038
▁Promises	-11.6044
61	-11.6045
▁hall	-11.6048
through	-11.605
▁excess	-11.6051
▁Henderson	-11.6052
▁JavaScript	-11.6052
▁marital	-11.6052
▁narrator	-11.6052
▁peculiar	-11.6052
▁sympathetic	-11.6052
▁colony	-11.6052
▁excuse	-11.6052
▁inviting	-11.6052
▁psychopath	-11.6052
▁whisk	-11.6053
▁causing	-11.6053
▁supermarket	-11.6053
▁Sherman	-11.6053
▁Whitney	-11.6053
▁assistance	-11.6054
▁15,000	-11.6056
▁sabotage	-11.6056
▁doorstep	-11.6059
▁performer	-11.6061
▁Leonardo	-11.6063
Ben	-11.6066
▁Goldberg	-11.6068
▁Scientific	-11.6075
▁layer	-11.6075
▁Jayne	-11.6078
▁Hundreds	-11.6078
▁homeowners	-11.6078
wash	-11.6079
▁Il	-11.608
Mac	-11.6081
▁participants	-11.6082
▁planets	-11.6083
abi	-11.6084
▁Artist	-11.6084
▁tu	-11.6086
▁Studio	-11.6087
dish	-11.6087
▁sustained	-11.609
▁vow	-11.6091
▁guess	-11.6095
▁audiences	-11.61
Se	-11.61
cate	-11.6102
▁Check	-11.6104
▁Goodman	-11.6104
▁Risk	-11.611
Main	-11.6111
naval	-11.6114
▁adore	-11.6114
▁borders	-11.6115
▁visited	-11.6118
▁targets	-11.6119
conscious	-11.6122
▁Trip	-11.6122
Festival	-11.6124
Illustrated	-11.6124
▁brown	-11.6125
▁Coffee	-11.6126
▁believing	-11.6126
▁energetic	-11.6126
▁glamour	-11.6126
▁mouthwatering	-11.6126
▁predecessor	-11.6126
▁Daisy	-11.6126
▁Lindsay	-11.6126
▁Psychotherapy	-11.6126
Hampton	-11.6126
▁frog	-11.6126
▁artifacts	-11.6127
miss	-11.6127
▁Local	-11.6127
▁aircraft	-11.6127
▁Hag	-11.6127
▁damn	-11.6127
una	-11.6128
▁Barack	-11.6128
▁Escape	-11.613
Howell	-11.6132
▁displays	-11.6134
▁momentous	-11.6134
▁Sword	-11.6136
▁Allied	-11.6139
▁gentleman	-11.6139
▁accidentally	-11.6139
▁cute	-11.6144
lah	-11.6146
haus	-11.6146
▁catches	-11.6147
▁arrest	-11.6147
▁planner	-11.6148
taining	-11.6149
▁troubles	-11.6151
▁resourceful	-11.6152
▁layers	-11.6152
yan	-11.6153
▁insist	-11.6154
▁magician	-11.6156
▁updates	-11.6157
▁Babe	-11.6158
▁Herb	-11.6159
▁Dala	-11.6161
▁expects	-11.6162
▁Connor	-11.6163
▁Powers	-11.6164
augh	-11.6165
▁ordered	-11.6165
▁Counting	-11.6169
▁thrilled	-11.6174
▁distinct	-11.6175
▁sweeps	-11.6176
NET	-11.6179
▁ailments	-11.6181
▁Plant	-11.6183
▁collections	-11.6184
rag	-11.6185
▁torture	-11.6186
▁fails	-11.6188
▁Moment	-11.62
Quick	-11.62
▁Capitol	-11.62
▁funniest	-11.62
▁manufacture	-11.62
▁Regency	-11.62
▁1899,	-11.62
▁Indeed	-11.62
stairs	-11.62
▁heiress	-11.6201
▁slim	-11.6202
Create	-11.6202
▁Witness	-11.6202
▁Mall	-11.6202
turned	-11.6205
uf	-11.6206
izes	-11.6206
▁Drake	-11.6206
▁Oates	-11.6206
▁genes	-11.6207
position	-11.6209
▁Rainbow	-11.6212
▁editing	-11.6212
▁Crazy	-11.6213
NOW	-11.6216
▁Talking	-11.6216
▁hunted	-11.6219
▁plunged	-11.622
▁mill	-11.6223
▁Shar	-11.6225
▁forcing	-11.6225
▁practitioners	-11.6232
▁nurses	-11.6232
.","""	-11.6234
▁Inst	-11.6234
ova	-11.6246
▁BR	-11.6247
TR	-11.6249
▁exams	-11.6252
▁Happen	-11.6253
▁Data	-11.6259
▁frequent	-11.6259
▁Margo	-11.626
MAN	-11.6261
▁kitchens	-11.6261
▁lure	-11.6261
▁salad	-11.6262
fo	-11.6263
▁Robertson	-11.6267
bol	-11.6268
▁dancer	-11.6269
▁shifting	-11.6269
▁Rand	-11.6272
▁dieting	-11.6272
aking	-11.6272
▁Weddings	-11.6273
Revell	-11.6274
▁Maureen	-11.6275
▁daunting	-11.6275
▁disciple	-11.6275
▁fatigue	-11.6275
▁manipulate	-11.6275
▁theoretical	-11.6275
▁grisly	-11.6275
▁capabilities	-11.6275
▁fiber	-11.6275
▁Olive	-11.6275
▁grandchildren	-11.6275
▁Emerson	-11.6275
▁Patsy	-11.6276
▁equip	-11.6276
▁Pork	-11.6276
▁mythology	-11.6277
pressed	-11.6281
▁negotiate	-11.6281
▁Mario	-11.6282
Join	-11.6283
▁publish	-11.6284
▁stain	-11.6289
imm	-11.6289
Sonoma	-11.629
▁Model	-11.6297
▁interactions	-11.6303
”)	-11.6303
▁trim	-11.6304
▁Bryant	-11.6305
▁abundant	-11.6312
iden	-11.6312
▁grilling	-11.6312
▁monsters	-11.6313
Van	-11.6314
▁rape	-11.6316
▁Hop	-11.6317
▁winds	-11.6318
▁IV	-11.6319
shot	-11.632
▁cherish	-11.6328
standing	-11.6329
▁Robb	-11.6331
▁episode	-11.6338
▁farmer	-11.6339
Come	-11.634
Did	-11.6344
Fi	-11.6344
▁scrap	-11.6349
▁icons	-11.6349
▁Emperor	-11.635
▁Pictorial	-11.635
▁clandestine	-11.635
▁endeavor	-11.635
▁jargon	-11.635
▁summary	-11.635
▁Dirty	-11.635
▁flair	-11.635
▁naked	-11.635
▁pepper	-11.635
Cambridge	-11.635
appropriate	-11.635
▁Thai	-11.635
▁conquest	-11.635
▁Watergate	-11.6351
▁cruelty	-11.6353
▁Heidi	-11.6353
Making	-11.6353
▁statement	-11.6354
▁Mess	-11.6354
▁Shui	-11.6354
▁Brock	-11.6356
without	-11.6357
▁Chas	-11.6357
▁mystical	-11.6357
▁Numbers	-11.6357
▁deftly	-11.6358
▁Straight	-11.6359
▁joining	-11.6362
▁difficulty	-11.6364
▁Writings	-11.6365
▁Favorites	-11.637
▁Including	-11.6371
▁metal	-11.6379
bell	-11.6384
▁fleet	-11.6388
▁empowering	-11.6392
ipper	-11.6394
▁burst	-11.6394
▁betray	-11.6398
pha	-11.6399
▁properly	-11.64
▁newborn	-11.6401
▁pressing	-11.6402
▁Victory	-11.6407
▁wins	-11.6411
▁Traditions	-11.6412
▁Bus	-11.6412
▁Northeast	-11.6413
▁sibling	-11.6416
▁Disorder	-11.6416
▁instructor	-11.6419
▁(“	-11.6419
▁Scriptures	-11.6423
▁thank	-11.6425
▁horizon	-11.6425
Rutledge	-11.6425
▁1955	-11.6425
▁Beatrix	-11.6425
▁Soccer	-11.6425
▁anatomy	-11.6425
▁assortment	-11.6425
▁labyrinth	-11.6426
▁Patient	-11.6426
▁Organic	-11.6426
▁Worse	-11.6426
▁extraordinarily	-11.6426
▁Naked	-11.6426
▁bittersweet	-11.6426
people	-11.6426
▁Workshop	-11.6426
White	-11.6426
MP	-11.6427
▁Passage	-11.6427
▁constitutional	-11.6428
▁acid	-11.6428
Apple	-11.643
▁bible	-11.643
▁Iranian	-11.6432
▁parade	-11.6435
▁observed	-11.6441
discovery	-11.6442
▁Languages	-11.6442
tention	-11.6445
▁clinic	-11.6445
▁suspected	-11.6445
▁observer	-11.6446
▁decipher	-11.6446
▁dollar	-11.6447
▁Mona	-11.6448
▁damaged	-11.6448
▁Triumph	-11.645
▁shouldn	-11.6452
Five	-11.6453
▁split	-11.6456
):	-11.6461
▁responses	-11.6462
▁seas	-11.6464
▁candy	-11.647
ees	-11.6472
Jove	-11.6472
▁wander	-11.6472
poli	-11.6474
▁phenomena	-11.6478
▁tri	-11.6482
▁deliciously	-11.6486
▁psycho	-11.6487
▁acknowledge	-11.6487
▁Muslims	-11.6489
▁Becker	-11.6489
▁spiritually	-11.6491
ech	-11.6498
▁basket	-11.6502
▁Adolescent	-11.6502
▁Remodeling	-11.6502
▁generosity	-11.6502
▁hurricane	-11.6502
▁studied	-11.6502
▁sturdy	-11.6502
▁Elephant	-11.6502
▁Flavor	-11.6502
▁Scarpetta	-11.6502
▁Shepherd	-11.6502
▁composer	-11.6502
▁applies	-11.6502
▁Smoke	-11.6502
▁devil	-11.6503
▁marries	-11.6503
▁Finish	-11.6503
Kids	-11.6504
▁Daddy	-11.6504
pun	-11.6504
▁Cheney	-11.6504
36	-11.6504
mill	-11.6507
▁Number	-11.6508
▁Riddles	-11.651
pplying	-11.6511
▁$7.8	-11.6511
▁governments	-11.6511
▁Lester	-11.6511
▁Kre	-11.6511
▁slo	-11.6512
▁Grief	-11.6514
▁ADD	-11.6514
▁server	-11.6515
chester	-11.6517
may	-11.6517
insky	-11.6518
▁sewing	-11.6521
▁Nut	-11.6522
▁consulting	-11.6528
worthy	-11.6533
bie	-11.6534
▁emphasiz	-11.6534
▁File	-11.6534
▁Sparks	-11.6534
▁Subjects	-11.6534
▁activists	-11.6535
Brook	-11.6537
edic	-11.6538
uro	-11.6538
▁Ski	-11.6539
▁Speaking	-11.6543
▁Fuller	-11.6544
pounding	-11.6544
▁Fishing	-11.6546
▁existed	-11.6546
▁rebuild	-11.6549
▁Command	-11.655
▁physically	-11.6552
▁Awards	-11.6555
enchant	-11.6556
▁presentations	-11.6559
Cook	-11.656
▁Root	-11.6561
uni	-11.6569
▁urges	-11.6572
▁philosopher	-11.6573
hole	-11.6573
▁talked	-11.6574
▁Listen	-11.6578
▁Conservation	-11.6579
▁Dickinson	-11.6579
▁Incredible	-11.6579
▁association	-11.6579
▁librarian	-11.6579
▁nemesis	-11.6579
▁steep	-11.6579
▁regulation	-11.6579
▁railroad	-11.6579
▁inherent	-11.6579
▁Nikki	-11.6579
Books	-11.6579
▁MacArthur	-11.6579
▁Retirement	-11.658
▁optimism	-11.658
▁pawn	-11.6581
▁Rosenberg	-11.6581
▁uncertainty	-11.6581
▁Clara	-11.6581
▁unpublished	-11.6581
Though	-11.6581
▁mighty	-11.6581
▁Williamsburg	-11.6581
▁collect	-11.6581
Country	-11.6582
▁warming	-11.6582
manship	-11.6582
stopping	-11.6582
▁Johanna	-11.6583
▁Rum	-11.6583
▁Trent	-11.6584
fit	-11.6585
▁Hil	-11.6586
▁overwhelmed	-11.6587
▁skilled	-11.6587
▁ob	-11.659
▁settlement	-11.659
▁convicted	-11.6591
▁motivational	-11.6591
EVER	-11.6591
▁riddles	-11.6593
grand	-11.6594
▁storybook	-11.6595
▁wh	-11.6595
▁Pierre	-11.6596
▁indoor	-11.6599
▁Whatever	-11.66
Vi	-11.66
▁athlete	-11.6601
▁$16.	-11.6602
▁Changed	-11.6602
proving	-11.6603
▁1988	-11.6603
▁reads	-11.6605
▁stark	-11.6608
horn	-11.6608
93	-11.6611
▁dreaming	-11.6612
▁Such	-11.6614
▁Barn	-11.6616
▁Stro	-11.6617
▁Pay	-11.6619
▁hill	-11.6619
▁publications	-11.6623
▁Won	-11.6623
live	-11.6629
Contains	-11.6629
eye	-11.6631
lander	-11.6631
▁forged	-11.6643
▁picks	-11.6645
trac	-11.6645
▁debates	-11.6645
was	-11.6649
▁grant	-11.665
▁awe	-11.6651
▁option	-11.6652
▁Gentle	-11.6652
▁memoirs	-11.6652
introducing	-11.6656
▁Caldecott	-11.6656
▁Diabetic	-11.6656
▁athletic	-11.6656
▁grieving	-11.6656
▁rollicking	-11.6656
▁slaughter	-11.6656
▁wondrous	-11.6656
▁architectural	-11.6657
▁granddaughter	-11.6657
▁Flat	-11.6657
consuming	-11.6657
▁occurred	-11.6657
▁Biggest	-11.6657
▁loyalties	-11.6657
▁whip	-11.6657
▁blast	-11.6658
▁myself	-11.6658
▁Norma	-11.6658
▁narratives	-11.6659
Amour	-11.666
▁feat	-11.666
▁Pirate	-11.666
▁Wol	-11.666
Anne	-11.6661
▁authenticity	-11.6663
▁Waters	-11.6664
▁Kitty	-11.6665
▁Pine	-11.6667
▁haunts	-11.6667
▁IT	-11.6667
▁Merry	-11.6667
apping	-11.6669
▁heels	-11.6669
▁bowl	-11.6671
▁coaching	-11.6673
▁Lower	-11.6674
▁Wales	-11.6675
▁loan	-11.6677
▁Hale	-11.6679
▁illnesses	-11.6679
month	-11.6679
▁Bach	-11.6679
▁poster	-11.6683
▁Industrial	-11.6685
▁passionately	-11.6686
▁Ok	-11.6689
▁Willie	-11.669
▁Moving	-11.669
▁Dur	-11.6691
stick	-11.6691
oni	-11.6691
▁Officer	-11.6692
▁maid	-11.6693
▁Vice	-11.6694
▁Mus	-11.6694
▁richest	-11.6696
▁Troy	-11.6699
▁Upon	-11.6701
▁Wicked	-11.6702
ordina	-11.6704
▁united	-11.6704
▁stealing	-11.671
▁establishing	-11.671
rai	-11.671
▁Fur	-11.6711
▁26	-11.6711
RY	-11.6717
▁anticipate	-11.672
▁sailing	-11.672
▁seize	-11.6724
fused	-11.6729
▁Thriller	-11.6732
▁Brazil	-11.6733
▁monk	-11.6734
▁undertake	-11.6734
Algonquin	-11.6734
▁Macomber	-11.6734
▁Naomi	-11.6734
▁Prophecy	-11.6734
▁Swift	-11.6734
▁converge	-11.6734
▁ominous	-11.6734
▁unflinching	-11.6734
▁Colonel	-11.6734
▁Jerome	-11.6734
▁reducing	-11.6734
▁siege	-11.6734
▁Hawthorne	-11.6734
▁biographer	-11.6735
stan	-11.6735
▁unfamiliar	-11.6735
▁silk	-11.6735
▁persistent	-11.6735
▁28	-11.6736
▁sins	-11.6736
▁dive	-11.6738
▁bravery	-11.6741
▁Parties	-11.6741
▁descendant	-11.6741
Angel	-11.6742
▁agreement	-11.6744
▁seeds	-11.6744
▁Ark	-11.6744
▁Hong	-11.6746
▁forgive	-11.6747
PS	-11.6748
▁adventurer	-11.6748
Combin	-11.6749
▁arch	-11.6751
whether	-11.6751
nation	-11.6751
▁contractor	-11.6752
▁Host	-11.6753
▁Greenberg	-11.6753
▁dimensions	-11.6754
Dear	-11.6755
▁Becky	-11.6755
lets	-11.6756
▁Chapters	-11.6756
▁gems	-11.6757
▁unveil	-11.6757
▁Erotica	-11.6758
talk	-11.6762
▁endured	-11.6762
▁spur	-11.6763
▁Choose	-11.6766
▁stores	-11.6768
OUR	-11.677
game	-11.6771
▁Ky	-11.6772
▁husbands	-11.6774
▁Sco	-11.6783
▁wing	-11.6783
▁kit	-11.6785
▁fills	-11.6786
See	-11.6789
▁recorded	-11.6792
▁Station	-11.6798
▁firmly	-11.6802
thy	-11.6803
▁Fashion	-11.6807
▁Breath	-11.6807
▁blessing	-11.6813
▁fool	-11.6813
▁audio	-11.6813
▁Dakota	-11.6813
▁Memorial	-11.6813
▁dedication	-11.6813
▁fossil	-11.6813
▁guiding	-11.6813
▁manipulation	-11.6813
▁metabolism	-11.6813
▁patience	-11.6813
▁Mirror	-11.6813
▁Senior	-11.6813
▁Simmons	-11.6813
▁blessed	-11.6813
▁demonstrating	-11.6813
▁Above	-11.6813
▁Division	-11.6814
▁Lydia	-11.6814
▁dismiss	-11.6814
▁Minister	-11.6815
▁armies	-11.6815
▁ears	-11.6815
▁fanatic	-11.6816
daughter	-11.6816
▁$8.4	-11.6819
oma	-11.6821
▁definition	-11.6824
▁breeds	-11.6825
lla	-11.6826
▁Joey	-11.683
▁immensely	-11.6831
▁Christie	-11.6832
▁Spenser	-11.6833
▁Lab	-11.6833
▁homeland	-11.6833
▁renew	-11.6834
▁Mur	-11.6837
▁Front	-11.6837
▁summoned	-11.684
▁Para	-11.685
utter	-11.6851
hall	-11.6853
▁Howell	-11.6853
▁Poet	-11.6854
▁destroying	-11.6857
▁Devotions	-11.6857
evi	-11.6858
▁educated	-11.6859
▁picking	-11.6859
▁Von	-11.6861
▁Heller	-11.6864
▁fueled	-11.6867
▁dressed	-11.6869
DE	-11.6871
▁torment	-11.6874
▁Cobb	-11.6876
▁acquire	-11.6878
▁forests	-11.6878
▁sorts	-11.6879
▁Enterprises	-11.6882
▁Cuban	-11.6883
▁Mann	-11.6889
▁fits	-11.689
▁Penelope	-11.6892
▁abundance	-11.6892
▁abusive	-11.6892
▁adversity	-11.6892
▁brilliance	-11.6892
▁constellation	-11.6892
▁custody	-11.6892
▁identities	-11.6892
▁Biscuit	-11.6893
▁scoop	-11.6893
▁enticing	-11.6893
▁Gingrich	-11.6893
▁tennis	-11.6893
▁Giving	-11.6894
▁por	-11.6894
▁lamp	-11.6894
▁missile	-11.6894
▁Attitude	-11.6895
▁shifts	-11.6896
Keep	-11.6897
Entertainment	-11.6897
prepare	-11.6897
Family	-11.6897
training	-11.6899
▁heartache	-11.6899
▁investor	-11.69
▁Protect	-11.6903
pass	-11.6904
▁Palestinian	-11.6906
▁musician	-11.6906
▁overnight	-11.6908
OU	-11.691
▁roommate	-11.6913
▁120	-11.6915
▁Marines	-11.6922
▁3-	-11.6923
▁mode	-11.6925
Ve	-11.6925
plan	-11.6926
▁Clinical	-11.6927
▁Mastering	-11.6928
▁stops	-11.693
▁remove	-11.6931
▁Guil	-11.6931
race	-11.6933
▁stresses	-11.6935
▁behave	-11.6939
dan	-11.6939
▁optim	-11.6943
▁ruined	-11.6943
▁explorers	-11.6946
▁restless	-11.6946
▁Roses	-11.6949
▁recount	-11.6949
▁inherit	-11.695
▁Pigs	-11.695
▁conceal	-11.6951
▁Claus	-11.6953
▁Alt	-11.6956
▁breathe	-11.6959
ragon	-11.6962
cock	-11.6966
▁Shop	-11.6967
itty	-11.6968
Mon	-11.6969
action	-11.6969
zzi	-11.6969
▁Prime	-11.697
▁Tempe	-11.6971
▁Prevent	-11.6972
▁Midwest	-11.6972
Advance	-11.6972
▁shrewd	-11.6973
▁stunned	-11.6973
▁Difference	-11.6973
▁therapies	-11.6973
▁Desktop	-11.6973
▁strive	-11.6973
▁hallmark	-11.6973
▁tutorial	-11.6973
▁loaded	-11.6973
sburg	-11.6973
▁Titanic	-11.6973
▁stem	-11.6973
▁Understand	-11.6973
▁uncommon	-11.6973
▁poker	-11.6974
▁Clue	-11.6974
Contribut	-11.6975
▁Milton	-11.6975
▁150,000	-11.6976
Beyond	-11.6978
Special	-11.6978
▁Hugo	-11.6978
.",,,"	-11.6978
▁vs	-11.6978
▁ninety	-11.6979
▁archaeologist	-11.6979
▁article	-11.6979
HP	-11.698
Th	-11.6981
▁Levi	-11.6982
▁beaten	-11.6982
▁Hands	-11.6985
▁Wake	-11.6986
Only	-11.6987
▁Piper	-11.699
▁Dinosaur	-11.6992
ante	-11.6994
▁Gina	-11.6995
hil	-11.6996
▁Archer	-11.6998
berger	-11.6999
▁meditations	-11.7001
Far	-11.7004
▁Toys	-11.7004
▁Comes	-11.7009
▁remembered	-11.7009
▁Sandy	-11.7009
▁Qaeda	-11.701
inch	-11.701
90	-11.701
▁Former	-11.7011
02	-11.7013
▁Monk	-11.7014
44	-11.7016
?)	-11.7017
wide	-11.7017
break	-11.7018
▁Graf	-11.7019
enstein	-11.702
▁Thoughts	-11.702
▁Expert	-11.702
▁poses	-11.702
▁Kam	-11.7021
▁rip	-11.7028
▁Thin	-11.703
▁dragons	-11.7038
▁PO	-11.7041
▁Date	-11.7044
▁hire	-11.7045
▁spoke	-11.7048
▁flees	-11.7048
▁Amazon	-11.7053
▁Concise	-11.7053
▁Johansen	-11.7053
▁Julius	-11.7053
▁ambassador	-11.7053
▁economist	-11.7053
▁exuberant	-11.7053
▁galaxy	-11.7053
▁luscious	-11.7053
▁nephew	-11.7053
▁turkey	-11.7053
▁Attack	-11.7053
▁vessel	-11.7053
▁commentaries	-11.7053
▁eerie	-11.7054
▁email	-11.7055
▁cozy	-11.7055
▁Channel	-11.7057
▁Gwen	-11.7057
45	-11.7057
▁Pel	-11.7057
▁Assn	-11.7058
▁cynical	-11.7058
▁Connie	-11.7058
▁ranges	-11.7059
▁rhyme	-11.7059
ira	-11.7059
▁outspoken	-11.7059
▁abound	-11.7059
▁Beast	-11.7061
▁stretches	-11.7061
▁firms	-11.7062
▁impress	-11.7063
▁Important	-11.7064
▁endangered	-11.7064
▁entering	-11.7065
▁yearn	-11.7066
▁wildest	-11.7066
lib	-11.7066
▁Suze	-11.7067
lish	-11.7067
▁via	-11.707
▁Avoid	-11.7077
▁Hear	-11.7079
▁Cry	-11.7079
pher	-11.708
▁Miracles	-11.7081
▁appearances	-11.7084
icit	-11.7087
▁tied	-11.7087
▁Dating	-11.7089
▁shed	-11.7089
▁pink	-11.7091
▁Loren	-11.7091
▁Polly	-11.7093
▁construct	-11.7097
▁char	-11.7098
IES	-11.7099
▁scam	-11.71
eus	-11.71
▁purposes	-11.7102
▁unfolding	-11.7103
▁Cox	-11.7103
▁Juan	-11.7108
▁facet	-11.7109
▁Takes	-11.7109
▁coup	-11.7111
tended	-11.7114
▁portray	-11.7114
Bob	-11.7118
Off	-11.7119
Sourcebooks	-11.7119
▁cab	-11.7119
▁captivate	-11.712
▁rivals	-11.712
▁gardeners	-11.712
utt	-11.7122
▁Kings	-11.7122
▁Catch	-11.7127
▁breeding	-11.713
ility	-11.7131
▁proposes	-11.7132
▁darkly	-11.7133
▁differ	-11.7133
▁traffic	-11.7134
▁Sergeant	-11.7134
▁accuracy	-11.7134
▁fraud	-11.7134
▁satellite	-11.7134
▁stimulate	-11.7134
▁channel	-11.7134
▁splendor	-11.7134
▁Cardinal	-11.7134
▁Securities	-11.7135
▁Nathaniel	-11.7135
eal	-11.7135
▁Tricks	-11.7135
▁piano	-11.7136
▁Foot	-11.7136
▁frustrated	-11.7136
▁potent	-11.7137
▁Raw	-11.7139
dependent	-11.714
force	-11.7141
Victor	-11.7141
▁fascinated	-11.7141
▁sheds	-11.7141
NEW	-11.7142
▁tile	-11.7145
▁Calculus	-11.7147
▁pl	-11.7147
▁Avi	-11.7151
▁Mini	-11.7151
dead	-11.7152
posing	-11.7153
vie	-11.7153
ride	-11.7154
▁Wing	-11.7155
▁granted	-11.7158
74	-11.7158
lett	-11.7161
▁reactions	-11.7161
▁Saints	-11.7167
omp	-11.7169
▁blends	-11.7173
▁Fighting	-11.7177
▁recreate	-11.7178
▁Seth	-11.7183
▁hum	-11.7183
▁encouraged	-11.7184
▁cameras	-11.7184
▁Collector	-11.7189
▁beef	-11.7189
▁creations	-11.719
▁Learned	-11.719
going	-11.719
ucci	-11.7191
▁guarded	-11.7194
▁Lent	-11.7196
▁SO	-11.7197
▁Voices	-11.7199
▁Debra	-11.7199
▁Jam	-11.72
▁formation	-11.7203
▁Turning	-11.7208
impos	-11.7211
liest	-11.7213
▁addressed	-11.7213
▁stuffed	-11.7215
▁wreck	-11.7215
▁District	-11.7216
▁arrogant	-11.7216
▁havoc	-11.7216
▁navigating	-11.7216
▁Cuisine	-11.7216
▁Siblings	-11.7216
▁revisit	-11.7216
▁Schulz	-11.7216
▁casino	-11.7216
▁festive	-11.7216
▁Blanchard	-11.7216
▁Duchess	-11.7216
▁anguish	-11.7216
▁untold	-11.7217
▁slide	-11.7217
▁Trevor	-11.7217
▁Salmon	-11.7218
▁rail	-11.7219
▁fo	-11.722
▁courtship	-11.722
▁preventing	-11.7222
▁Divine	-11.7222
▁banks	-11.7223
length	-11.7223
Perfect	-11.7224
▁ballet	-11.7224
berries	-11.7224
Super	-11.7226
▁Crystal	-11.7226
▁Tate	-11.7228
Never	-11.723
▁lock	-11.7231
▁flip	-11.7231
▁Trial	-11.7231
▁$13.8	-11.7235
▁exposing	-11.7235
liness	-11.7235
▁160	-11.7236
Rich	-11.7236
May	-11.7236
collar	-11.7237
▁detailing	-11.7237
▁declared	-11.7238
▁Few	-11.724
Collier	-11.724
gated	-11.7242
▁lavishly	-11.7243
▁toxic	-11.7243
ONE	-11.7245
▁Bio	-11.7245
▁orbit	-11.7246
▁protected	-11.7248
▁Feng	-11.7248
stakes	-11.7249
TO	-11.7253
▁relentlessly	-11.7257
▁tooth	-11.7258
hitting	-11.7264
▁declar	-11.7268
▁volumes	-11.7277
▁mayor	-11.7282
▁interviewed	-11.7285
▁awards	-11.7289
Plan	-11.729
▁bills	-11.7292
▁Wanted	-11.7295
▁Called	-11.7298
▁Baxter	-11.7299
▁Hampshire	-11.7299
▁Katharine	-11.7299
▁Kentucky	-11.7299
▁Rachael	-11.7299
▁conservation	-11.7299
▁physicist	-11.7299
▁provoke	-11.7299
▁Struggle	-11.7299
▁Nicola	-11.7299
▁boring	-11.7299
▁pronunciation	-11.7299
▁Flynn	-11.7299
▁conscious	-11.7299
▁precision	-11.7299
▁Esther	-11.7299
▁probing	-11.73
▁Ferguson	-11.73
▁Woodward	-11.7301
▁incorporat	-11.7302
▁monumental	-11.7302
▁Events	-11.7303
▁flavorful	-11.7303
▁stable	-11.7305
business	-11.7307
Webster	-11.7307
▁mature	-11.7308
space	-11.7309
▁skies	-11.7309
▁temper	-11.731
▁Soldier	-11.7311
▁Discipline	-11.7311
▁Hir	-11.7313
▁$8.3	-11.7313
▁executed	-11.7314
▁Kinsey	-11.7316
▁dares	-11.7316
▁Reid	-11.7319
neck	-11.7321
▁Chili	-11.7322
▁Boyle	-11.7323
tier	-11.7325
▁Childhood	-11.7325
▁Sierra	-11.7326
full	-11.7327
▁rightful	-11.7328
▁boarding	-11.733
▁tag	-11.7332
Lark	-11.7334
umbling	-11.7335
▁Irwin	-11.7339
▁codes	-11.7342
▁Sesame	-11.7343
▁Mercy	-11.7344
▁advantages	-11.7346
▁differently	-11.7355
uous	-11.7355
▁Tax	-11.7358
▁SE	-11.7358
Into	-11.7359
▁Scar	-11.7359
oom	-11.7362
▁sleepy	-11.7364
enter	-11.7366
treat	-11.7371
held	-11.7375
▁reconstruct	-11.7376
▁finishing	-11.7379
▁Dwight	-11.7382
▁Hanukkah	-11.7382
▁Organizing	-11.7382
▁Physical	-11.7382
▁Puppy	-11.7382
▁endurance	-11.7382
▁maneuver	-11.7382
▁nervous	-11.7382
▁widespread	-11.7382
▁Oracle	-11.7382
▁Whisper	-11.7382
▁smash	-11.7382
▁FDR	-11.7382
▁stamp	-11.7382
▁stability	-11.7382
▁captive	-11.7383
▁propel	-11.7383
▁woo	-11.7383
▁Fritz	-11.7384
▁Thornton	-11.7384
▁uneasy	-11.7384
▁Marianne	-11.7385
78	-11.7385
▁badly	-11.7385
▁Marvin	-11.7385
▁Poker	-11.7386
▁hardware	-11.7386
▁Laurence	-11.7387
▁counts	-11.7389
▁spreads	-11.7392
LL	-11.7393
death	-11.7396
▁Benson	-11.74
▁Cooker	-11.7401
▁passes	-11.7403
▁Improve	-11.7403
▁viewpoints	-11.7408
▁cling	-11.7408
▁speakers	-11.7412
watch	-11.7413
ambi	-11.7413
▁Olympic	-11.7414
▁weren	-11.7417
▁Destiny	-11.7417
▁Adler	-11.7418
▁Lara	-11.7419
▁Rocky	-11.7426
Have	-11.7426
▁Files	-11.7427
ello	-11.7428
road	-11.7441
▁buck	-11.7442
UM	-11.7443
▁supporting	-11.7443
MS	-11.7444
Fun	-11.745
▁wire	-11.745
▁#	-11.7451
84	-11.7452
▁Solve	-11.7455
▁winners	-11.7456
rog	-11.7463
▁Definitive	-11.7466
▁Lindbergh	-11.7466
▁Schmidt	-11.7466
▁bloom	-11.7466
▁continual	-11.7466
▁impassioned	-11.7466
▁pulse	-11.7466
▁Sigma	-11.7466
▁Babies	-11.7466
▁Shepard	-11.7466
▁shady	-11.7466
Usborne	-11.7466
▁Pretty	-11.7466
▁jazz	-11.7466
Horizon	-11.7466
▁Basketball	-11.7467
▁attain	-11.7467
▁billionaire	-11.7467
▁Sisterhood	-11.7467
▁employment	-11.7468
▁Grafton	-11.7468
▁Lynch	-11.7469
▁portable	-11.747
▁sensuality	-11.7471
▁nail	-11.7473
▁Beef	-11.7474
▁Danger	-11.7475
▁confession	-11.7476
text	-11.7476
great	-11.7476
except	-11.7477
acre	-11.748
▁Pride	-11.7483
▁alliances	-11.7485
▁Desperate	-11.749
▁banker	-11.749
▁fake	-11.7491
▁storms	-11.7493
▁alphabetically	-11.7495
Rob	-11.7495
▁diplomatic	-11.7504
ggle	-11.7504
▁replaced	-11.7504
ahl	-11.7505
▁Thirty	-11.7506
▁circles	-11.7509
▁Mick	-11.7509
▁belly	-11.7509
▁visitor	-11.7511
▁Cab	-11.7516
▁VI	-11.7516
ESS	-11.7518
▁Wills	-11.7525
▁shores	-11.7525
▁reject	-11.7525
▁Bess	-11.7527
▁contacts	-11.7527
▁Starr	-11.7534
▁Marsh	-11.7534
rina	-11.7535
▁Spin	-11.7541
▁Var	-11.7547
▁Alabama	-11.7551
▁Railroad	-11.7551
▁Shapiro	-11.7551
▁Sinclair	-11.7551
▁anthropologist	-11.7551
▁awkward	-11.7551
▁catastrophic	-11.7551
▁escalate	-11.7551
▁graduation	-11.7551
▁merchant	-11.7551
▁nutritious	-11.7551
▁sizzling	-11.7551
▁penetrate	-11.7551
▁Sweat	-11.7551
▁compelled	-11.7551
▁furious	-11.7552
▁Breast	-11.7552
▁fond	-11.7552
▁ON	-11.7552
▁Knitting	-11.7552
▁fortunes	-11.7552
▁Lift	-11.7553
Mira	-11.7554
▁encompasses	-11.7555
▁Partner	-11.7556
▁Newton	-11.756
▁Connection	-11.756
Ever	-11.7561
▁Upper	-11.7561
▁Feed	-11.7562
bestselling	-11.7562
▁Australian	-11.7563
▁Sears	-11.7563
Enter	-11.7564
Center	-11.7565
▁Myth	-11.7565
▁Cash	-11.7566
torn	-11.7567
▁Bath	-11.7568
""?	-11.7572
▁Names	-11.7574
▁Poland	-11.7575
▁Reform	-11.7576
▁Papers	-11.7578
▁personalized	-11.7582
▁analyzing	-11.7583
Pictureback	-11.7586
▁corporation	-11.7586
name	-11.7587
▁bow	-11.7587
▁shops	-11.7588
▁guns	-11.7589
▁Chee	-11.7591
▁Pear	-11.7592
▁pour	-11.7594
▁Hair	-11.7595
▁informal	-11.7596
notes	-11.7596
▁Founding	-11.7597
▁UN	-11.76
▁Garlic	-11.7601
▁Willow	-11.7601
▁Wonders	-11.7602
▁veterans	-11.7606
IVE	-11.7607
▁refresh	-11.7607
▁Tara	-11.7611
▁Mit	-11.7612
▁Def	-11.7617
▁climbing	-11.7619
▁30-	-11.7624
vern	-11.7627
▁Hack	-11.7633
MARGIN	-11.7637
Wadsworth	-11.7637
▁Declaration	-11.7637
▁Donovan	-11.7637
▁Federation	-11.7637
▁Invisible	-11.7637
▁archival	-11.7637
▁flexible	-11.7637
▁flirt	-11.7637
▁iPhone	-11.7637
▁indomitable	-11.7637
▁preeminent	-11.7637
▁relevance	-11.7637
▁secrecy	-11.7637
▁swirl	-11.7637
▁syndrome	-11.7637
▁unfortunate	-11.7637
▁Scrapbook	-11.7637
▁Stupid	-11.7637
▁Dylan	-11.7637
▁indicate	-11.7637
▁Pursuit	-11.7637
▁roam	-11.7637
▁specialists	-11.7639
▁slice	-11.7639
▁airport	-11.7639
▁crab	-11.764
▁Hood	-11.764
▁icy	-11.764
▁hike	-11.764
▁evolutionary	-11.7641
▁unwittingly	-11.7642
seek	-11.7642
Travel	-11.7644
▁Fate	-11.7644
Smart	-11.7647
▁overlooked	-11.7648
▁competitors	-11.7648
series	-11.7649
Nancy	-11.7649
▁tortured	-11.7654
Turn	-11.7654
wel	-11.7655
▁warns	-11.7656
aire	-11.7656
▁Boo	-11.7657
mut	-11.7657
▁Kyle	-11.7657
iah	-11.7657
▁Investment	-11.7657
▁liberals	-11.7667
IDE	-11.7668
▁ingredient	-11.7669
▁articulate	-11.7669
▁Bard	-11.7669
▁Springs	-11.7671
▁Knights	-11.7677
▁mud	-11.7679
▁complications	-11.768
▁Kaye	-11.768
▁listed	-11.7681
▁Rhymes	-11.7688
ipped	-11.7688
▁surely	-11.7691
cia	-11.7692
working	-11.7693
▁Maps	-11.7694
there	-11.7696
▁viewed	-11.7697
▁conservatives	-11.7698
▁proposals	-11.77
▁aloud	-11.77
▁biting	-11.7704
▁dire	-11.7704
▁commands	-11.7706
apped	-11.7706
63	-11.7708
▁Mine	-11.7709
▁Track	-11.771
▁rides	-11.771
▁Cain	-11.7712
▁muscles	-11.7712
South	-11.7719
▁Kinkade	-11.7723
▁Medieval	-11.7723
▁Michigan	-11.7723
▁aesthetic	-11.7723
▁astronomy	-11.7723
▁decisive	-11.7723
▁demise	-11.7723
▁flexibility	-11.7723
▁unaware	-11.7723
▁absence	-11.7723
▁inquiry	-11.7723
▁Maurice	-11.7723
▁McDonald	-11.7723
▁crumbling	-11.7723
hawk	-11.7724
▁relaxation	-11.7724
▁affectionate	-11.7724
▁Mia	-11.7725
▁breakdown	-11.7725
▁reconcile	-11.7725
▁gaze	-11.7726
▁Wilkinson	-11.7726
▁Nest	-11.7727
▁expanding	-11.7727
▁Manners	-11.7728
▁$8.1	-11.7729
▁scenarios	-11.773
▁browser	-11.773
▁behalf	-11.773
▁Gut	-11.7733
Baby	-11.7734
Mosby	-11.7737
▁suffers	-11.7738
Bill	-11.7739
▁savory	-11.7739
gam	-11.7739
▁urge	-11.774
▁Instant	-11.774
▁Thor	-11.7742
▁panel	-11.7745
Kate	-11.7747
Poppy	-11.7751
▁Mate	-11.7757
tner	-11.7757
▁dominated	-11.7764
▁reduced	-11.7769
67	-11.7771
▁aimed	-11.7771
▁crowded	-11.7774
▁generate	-11.7775
▁Leah	-11.7776
▁preacher	-11.7777
▁rot	-11.7778
▁Ry	-11.7778
▁crusade	-11.7779
▁redefine	-11.7779
▁Conan	-11.7784
▁Farmer	-11.7784
Chronicles	-11.7784
elman	-11.7788
▁acclaim	-11.7788
▁painted	-11.779
▁Williamson	-11.7792
▁Northwest	-11.7793
▁genetics	-11.7794
▁Sleeping	-11.7796
▁lifestyles	-11.7796
egan	-11.7798
bee	-11.7805
ANT	-11.7808
Nickelodeon	-11.781
▁Anniversary	-11.781
▁Chloe	-11.781
▁Emeril	-11.781
▁Products	-11.781
▁Psalm	-11.781
▁comprehension	-11.781
▁concentration	-11.781
▁unsettling	-11.781
▁Pizza	-11.781
▁slightly	-11.781
▁sheriff	-11.781
▁valley	-11.781
▁heavily	-11.781
▁Index	-11.781
SQL	-11.781
▁Crane	-11.781
▁stalk	-11.7811
▁gritty	-11.7811
▁digging	-11.7811
▁Guard	-11.7811
▁Bradford	-11.7811
▁jewelry	-11.7812
▁insane	-11.7819
▁youngsters	-11.7819
▁Kong	-11.7819
▁Historic	-11.782
▁sixteenth	-11.7821
Arthur	-11.7821
▁CSS	-11.7821
▁developmental	-11.7822
Beautiful	-11.7822
Before	-11.7822
January	-11.7822
International	-11.7822
Plus	-11.7823
2004	-11.7824
Point	-11.7824
▁eliminat	-11.7825
▁semi	-11.7826
▁Morrison	-11.7829
published	-11.783
▁pies	-11.783
chen	-11.7831
true	-11.7831
▁Carlos	-11.7834
▁Celebrating	-11.7834
▁combinations	-11.7835
▁vowed	-11.7836
▁Compass	-11.7837
▁specialized	-11.7838
bread	-11.7839
▁agreed	-11.7839
fect	-11.7839
▁Makes	-11.7841
Yet	-11.7841
▁humorist	-11.7847
▁revolutionize	-11.7848
▁ponder	-11.7849
▁Dame	-11.7853
▁Stir	-11.7853
▁Buying	-11.7854
▁Pad	-11.7857
▁accommodations	-11.7862
▁breathing	-11.7864
▁pioneering	-11.7865
▁Photographs	-11.7866
App	-11.7867
▁embraced	-11.787
▁Lil	-11.787
▁Dig	-11.7874
train	-11.7874
▁Bag	-11.7877
▁quilting	-11.7877
▁topical	-11.7878
imb	-11.7879
▁#2)	-11.7882
▁prior	-11.7895
▁Knox	-11.7898
▁$21.9	-11.7898
▁Astronomy	-11.7898
▁Columbus	-11.7898
▁Imperial	-11.7898
▁Intimate	-11.7898
▁Protestant	-11.7898
▁aspirations	-11.7898
▁fragment	-11.7898
▁prostitute	-11.7898
▁razor	-11.7898
▁tunnel	-11.7898
▁injustice	-11.7898
▁Benedict	-11.7898
▁Missouri	-11.7898
▁Patriot	-11.7898
▁ruling	-11.7898
▁Biographies	-11.7898
▁Katrina	-11.7898
▁Delinsky	-11.7898
▁atomic	-11.7898
▁Arctic	-11.7898
▁comprise	-11.7898
▁1944	-11.7898
▁enforcement	-11.7898
▁Preston	-11.7898
▁Seafood	-11.7899
▁Theater	-11.7899
▁Nell	-11.7899
▁Feast	-11.7901
▁nut	-11.7901
▁Wait	-11.7905
▁Border	-11.7905
▁Millennium	-11.7905
▁Thus	-11.7905
▁grandson	-11.7906
▁TR	-11.7907
▁coal	-11.7907
▁leak	-11.7909
wind	-11.7909
science	-11.791
group	-11.791
growing	-11.7911
Well	-11.7913
▁neglected	-11.7914
▁Cod	-11.7914
▁Link	-11.7919
▁dual	-11.7924
▁Carle	-11.7924
▁cart	-11.7924
▁elephant	-11.7925
▁Boyd	-11.7925
▁Affair	-11.7925
▁Creation	-11.7927
▁Window	-11.7928
▁baked	-11.7935
▁Rex	-11.7942
▁belonging	-11.795
▁Came	-11.7951
▁barriers	-11.7952
▁Cleaning	-11.7954
▁Pull	-11.7954
▁Wave	-11.7955
▁landing	-11.7956
-1	-11.7957
Rand	-11.7961
▁hug	-11.7963
▁tower	-11.7964
▁Cakes	-11.7964
their	-11.7971
var	-11.7972
▁instruct	-11.7978
gui	-11.7978
shire	-11.7982
Pat	-11.7986
Lippincott	-11.7986
▁Commentary	-11.7986
▁autumn	-11.7986
▁libraries	-11.7986
▁tournament	-11.7986
▁universities	-11.7986
▁Quarter	-11.7986
▁suppress	-11.7986
▁Evanovich	-11.7986
▁Colleen	-11.7986
▁Cow	-11.7986
▁feather	-11.7987
▁Nursery	-11.7987
▁Levin	-11.7987
▁drill	-11.7987
▁Barnard	-11.7987
▁scripture	-11.7988
▁flock	-11.7988
▁specifications	-11.7991
▁revive	-11.7992
▁Welcome	-11.7992
▁considerable	-11.7993
▁Morton	-11.7993
▁rocket	-11.7994
▁Ear	-11.7995
▁brutality	-11.7998
▁possesses	-11.7998
▁roses	-11.7999
▁mega	-11.7999
Management	-11.8
Honor	-11.8
REA	-11.8002
▁Nutshell	-11.8003
▁hides	-11.8003
tified	-11.8003
Getting	-11.8003
winner	-11.8004
Hail	-11.8004
auer	-11.8006
formed	-11.8008
▁Cad	-11.8008
▁accepts	-11.8008
▁consultants	-11.8013
▁Spice	-11.8013
▁Leave	-11.8013
▁alarming	-11.8014
▁Anton	-11.8015
▁Recipe	-11.8016
▁Relationship	-11.8016
▁unraveling	-11.8016
▁shine	-11.8024
▁farmers	-11.8026
▁units	-11.8031
▁grapple	-11.8033
▁smaller	-11.8034
▁boil	-11.8038
▁NO	-11.804
▁Lifestyles	-11.8041
▁Wear	-11.8044
▁Stalin	-11.8046
▁Covering	-11.8047
24	-11.8051
▁Chu	-11.8052
▁Bold	-11.8053
▁Kru	-11.8054
▁objectives	-11.8056
▁Lap	-11.8057
▁translate	-11.8061
▁Burger	-11.8065
▁Confessions	-11.8065
▁dirt	-11.8067
▁Sad	-11.8067
blood	-11.8068
▁redeem	-11.8069
▁virus	-11.807
[...]
